[PAD]
[UNK]
[CLS]
[SEP]
[MASK]
!
"
#
$
%
&
'
(
)
*
+
,
-
.
/
0
1
2
3
4
5
6
7
8
9
:
;
<
=
>
?
@
A
B
C
D
E
F
G
H
I
J
K
L
M
N
O
P
Q
R
S
T
U
V
W
X
Y
Z
[
\
]
^
_
`
a
b
c
d
e
f
g
h
i
j
k
l
m
n
o
p
q
r
s
t
u
v
w
x
y
z
{
|
}
~
¡
¢
£
¤
¥
¦
§
¨
©
ª
«
¬
®
¯
°
±
²
³
´
µ
¶
·
¸
¹
º
»
¼
½
¾
¿
À
Á
Â
Ã
Ä
Å
Æ
Ç
È
É
Ê
Ë
Ì
Í
Î
Ï
Ð
Ñ
Ó
Ô
Ö
×
Ø
Ú
Ü
Þ
ß
à
á
â
ã
ä
å
æ
ç
è
é
ê
ë
ì
í
î
ï
ð
ñ
ò
ó
ô
õ
ö
÷
ø
ù
ú
û
ü
ý
þ
ÿ
Ā
ā
Ă
ă
Ą
ą
Ć
ć
Ĉ
ĉ
Ċ
ċ
Č
č
Ď
ď
Đ
đ
ē
ĕ
ė
ę
Ě
ě
ĝ
ğ
ġ
ħ
ĩ
ī
ĭ
İ
ı
ĳ
Ĺ
ĺ
ļ
Ľ
ľ
Ł
ł
ń
ņ
ň
ŋ
Ō
ō
ŏ
Ő
ő
Œ
œ
Ŕ
ŕ
Ř
ř
Ś
ś
ŝ
Ş
ş
Š
š
Ţ
ţ
Ť
ť
ū
ŭ
ů
ű
ų
Ÿ
Ź
ź
Ż
ż
Ž
ž
ſ
ƒ
Ɩ
ǌ
ǎ
ǐ
ǔ
ǝ
ǫ
ȁ
ȃ
ȅ
ȇ
ȉ
ȋ
ȍ
ȏ
ȕ
Ș
ș
Ț
ț
ɐ
ɑ
ɔ
ə
ɛ
ɡ
ɪ
ɹ
ɾ
ʁ
ʃ
ʊ
ʒ
ʲ
ʹ
ʺ
ʻ
ʼ
ʽ
ʾ
ʿ
˃
ˆ
ˇ
ˈ
ː
˗
˘
˙
˚
˛
˜
˝
ˮ
̀
́
̂
̃
̄
̈
̌
̏
̑
̓
̣
̧
̶
;
΄
Ά
Α
Β
Γ
Δ
Ε
Ζ
Η
Θ
Ι
Κ
Λ
Μ
Ν
Ξ
Ο
Π
Ρ
Σ
Τ
Υ
Φ
Χ
Ψ
Ω
ά
έ
ή
ί
ΰ
α
β
γ
δ
ε
ζ
η
θ
ι
κ
λ
μ
ν
ξ
ο
π
ρ
ς
σ
τ
υ
φ
χ
ψ
ω
ϋ
ό
ύ
ώ
ϑ
ϕ
ϰ
ϳ
ϵ
Ђ
Ѕ
І
Ј
Љ
Њ
Ћ
Ќ
Ў
Џ
А
Б
В
Г
Д
Е
Ж
З
И
Й
К
Л
М
Н
О
П
Р
С
Т
У
Ф
Х
Ц
Ч
Ш
Щ
Ъ
Ы
Ь
Э
Ю
Я
а
б
в
г
д
е
ж
з
и
й
к
л
м
н
о
п
р
с
т
у
ф
х
ц
ч
ш
щ
ъ
ы
ь
э
ю
я
ё
ђ
ѓ
є
ѕ
і
ї
ј
љ
њ
ћ
ќ
ў
џ
Ѣ
ѣ
ә
ԁ
Ա
Հ
ա
ե
ի
կ
մ
յ
ն
ո
ս
վ
տ
ր
ւ
ְ
ִ
ַ
ָ
ֹ
ּ
א
ב
ג
ד
ה
ו
ז
ח
ט
י
כ
ל
ם
מ
ן
נ
ס
ע
פ
צ
ק
ר
ש
ת
ء
آ
أ
إ
ئ
ا
ب
ة
ت
ث
ج
ح
خ
د
ذ
ر
ز
س
ش
ص
ض
ط
ظ
ع
غ
ـ
ف
ق
ك
ل
م
ن
ه
و
ى
ي
َ
ُ
ِ
ّ
ْ
پ
ک
گ
ی
क
त
द
न
म
य
र
ल
व
स
ा
ि
ी
्
া
น
ร
า
็
้
་
ა
ბ
ე
ვ
თ
ი
ლ
მ
ნ
ო
რ
ს
უ
ᴢ
ḍ
ḑ
Ḥ
ḥ
Ḩ
ḩ
ṃ
ṇ
ṛ
ṣ
ṭ
ạ
ế
ệ
ἀ
ἄ
Ἀ
ἐ
ἔ
Ἐ
ἡ
ἰ
Ἰ
ὁ
ὐ
ὰ
ὴ
ὶ
ὸ
᾿
ῆ
ῖ
ῦ
ῶ
‐
‑
‒
–
—
―
‖
‘
’
‚
‛
“
”
„
‟
†
‡
•
‣
…
‰
′
″
‹
›
‼
⁄
⁰
⁴
⁵
⁶
₂
₃
€
⃣
℃
ℏ
ℓ
№
™
Ω
←
↑
→
↓
↔
↗
↙
↩
↳
⇌
⇑
⇒
⇧
∀
∂
∅
∆
∇
∈
∑
−
∗
∘
∙
√
∞
∧
∩
∪
∫
∼
≈
≠
≡
≤
≥
⋅
⋆
⋯
〈
〉
─
│
└
═
╬
▀
▄
█
░
■
□
▪
▫
▬
▲
△
▶
▷
▸
▹
►
▼
◀
◄
◆
◇
◊
○
◎
●
◘
◦
◾
☀
★
☆
☎
☐
☕
☞
☦
☩
☺
☻
☼
♀
♂
♠
♡
♣
♥
♦
♪
♫
♬
♰
⚪
⚫
⚽
✅
✉
✊
✌
✎
✓
✔
✧
✨
✿
❄
❓
❗
❤
➇
➖
➜
➡
➢
➤
➥
➧
⟨
⟩
⟶
⠀
⦁
⬇
⭐
、
。
「
」
【
】
い
う
し
と
の
ん
ア
イ
ク
ス
タ
ッ
ト
ド
ラ
リ
ル
ロ
ン
・
ー
一
三
上
中
京
人
会
元
公
北
南
原
和
固
国
國
在
地
大
天
子
学
小
山
市
帝
平
年
忠
文
新
日
明
本
李
東
武
死
海
王
田
的
皇
知
義
藤
西
道
뀐
눇
눉
시
아
ﬁ
ﬂ
️
（
）
，
￼
🇪
🇭
🇷
🇸
🌞
🌟
🌸
🌹
🍀
🎁
🎄
🎈
🎉
🎵
🎶
🏆
🏻
🏼
🐑
👇
👉
👌
👍
👎
👏
👑
💋
💐
💓
💕
💖
💗
💙
💚
💛
💜
💞
💟
💩
💪
💫
📚
🔝
🔥
🔴
😀
😁
😂
😃
😄
😅
😆
😇
😈
😉
😊
😋
😍
😎
😏
😒
😔
😕
😘
😛
😜
😝
😞
😠
😡
😢
😣
😥
😦
😨
😬
😭
😮
😯
😱
😲
😳
🙁
🙂
🙄
🙈
🙋
🙌
🙏
🤓
🤔
🤗
🤣
🤩
🥰
##e
##b
##ř
##n
##s
##k
##i
##v
##j
##a
##r
##y
##d
##o
##m
##č
##l
##u
##p
##t
##h
##c
##z
##ö
##g
##ó
##ć
##x
##I
##N
##Đ
##Ć
##E
##V
##˝
##M
##T
##š
##R
##K
##q
##f
##G
##B
##2
##¹
##7
##1
##0
##9
##4
##5
##ž
##😔
##́
##8
##е
##п
##у
##6
##D
##A
##J
##Š
##đ
##3
##S
##O
##F
##L
##w
##X
##C
##¨
##Ž
##U
##л
##о
##ј
##а
##н
##P
##à
##ρ
##ο
##ν
##ι
##κ
##ὰ
##˘
##р
##с
##Ö
##ь
##ă
##з
##ý
##и
##м
##ā
##в
##ц
##т
##ł
##г
##Z
##д
##ћ
##ĳ
##ð
##Y
##к
##х
##ä
##া
##æ
##H
##ф
##ч
##υ
##â
##ţ
##α
##χ
##ί
##ς
##ѓ
##б
##®
##W
##ќ
##é
##Ă
##ˮ
##Č
##љ
##њ
##Ã
##Å
##¾
##ì
##ϳ
##ū
##♥
##å
##Ä
##έ
##λ
##σ
##Q
##è
##ђ
##Ā
##А
##В
##Л
##Д
##Ш
##˙
##−
##ē
##ã
##ḍ
##ś
##π
##ό
##ш
##™
##Æ
##я
##щ
##ύ
##β
##á
##ō
##í
##ť
##Â
##Ť
##ç
##É
##∆
##¬
##ъ
##ț
##È
##×
##ī
##ĉ
##ˇ
##ن
##Ĺ
##ľ
##̌
##Ą
##י
##ה
##ו
##ċ
##ß
##ŭ
##°
##€
##ﬁ
##î
##ˈ
##ɪ
##😀
##Ð
##ü
##й
##ʒ
##ː
##І
##ʼ
##ю
##ḥ
##ě
##😅
##ʹ
##ę
##ж
##ů
##ż
##→
##θ
##μ
##ω
##ø
##ɛ
##¦
##ș
##η
##ή
##Ë
##Ú
##γ
##τ
##ώ
##ζ
##ε
##ʺ
##Œ
##ğ
##☆
##ȅ
##ə
##و
##گ
##ر
##ی
##ɹ
##℃
##С
##Е
##э
##ń
##ı
##ә
##ئ
##ز
##ه
##ا
##ّ
##َ
##ُ
##ɾ
##ĩ
##̃
##ɐ
##ň
##ي
##س
##ة
##ξ
##´
##ʃ
##þ
##ы
##²
##Ŕ
##φ
##Ĉ
##ë
##ד
##ש
##ת
##ب
##ş
##Ç
##⁰
##û
##¸
##ò
##✌
##️
##ù
##ḩ
##─
##ѕ
##★
##Р
##О
##Ј
##К
##Т
##🇷
##🇪
##🇸
##ր
##ա
##ն
##ս
##ի
##յ
##¢
##🌹
##Ċ
##º
##￼
##∙
##ő
##ل
##ح
##ْ
##م
##ñ
##ſ
##ṭ
##Ï
##ú
##і
##ї
##Б
##Ó
##ű
##ĺ
##ت
##И
##П
##Н
##ِ
##ق
##ك
##👑
##џ
##Ê
##ά
##😉
##त
##्
##य
##क
##ा
##±
##˚
##ˆ
##ɔ
##ʊ
##ʁ
##̈
##Ø
##ṣ
##ȉ
##🎵
##ک
##╬
##ѣ
##ȁ
##У
##🤔
##œ
##स
##ि
##ļ
##З
##💋
##ش
##ف
##ô
##М
##♪
##Ď
##د
##ث
##̏
##√
##द
##न
##Ε
##Τ
##Α
##Μ
##Λ
##Η
##Θ
##ὶ
##Σ
##◊
##►
##ȃ
##ר
##ב
##ע
##מ
##õ
##ʾ
##ὐ
##δ
##Î
##◆
##Δ
##Ι
##Π
##義
##ط
##北
##⟶
##❤
##아
##Ś
##˜
##ď
##¤
##Ω
##Ц
##Г
##ё
##ħ
##ź
##■
##ǐ
##آ
##ء
##ê
##年
##ス
##ル
##Ż
##ـ
##ლ
##ა
##ნ
##ი
##ს
##🌞
##新
##🤗
##☺
##̧
##Ü
##ン
##ー
##🌸
##💞
##❄
##🎄
##🎁
##̀
##ո
##ւ
##տ
##ą
##Ѣ
##💓
##Á
##ん
##う
##ʻ
##ï
##є
##◦
##😄
##ạ
##إ
##ج
##山
##大
##🤣
##ḑ
##ع
##µ
##本
##田
##ϵ
##ŕ
##ɑ
##Э
##ְ
##כ
##ִ
##נ
##ָ
##̄
##リ
##ト
##天
##皇
##ロ
##ク
##ª
##ס
##ן
##Ÿ
##ĕ
##Ж
##Ћ
##ظ
##ى
##Ł
##ǌ
##ϕ
##ȏ
##ŏ
##😣
##א
##🏼
##غ
##😂
##Њ
##ƒ
##明
##王
##●
##😎
##ド
##タ
##中
##の
##会
##Ω
##Ş
##ψ
##Ф
##武
##🏆
##©
##😊
##ם
##ذ
##ῖ
##😜
##र
##🥰
##خ
##南
##Ъ
##פ
##♣
##京
##ė
##ל
##Φ
##Ρ
##👉
##😁
##ض
##£
##ĝ
##ņ
##İ
##ッ
##ȍ
##ȇ
##👌
##🏻
##Þ
##Ќ
##้
##ŋ
##ἰ
##ṛ
##ϑ
##Ь
##³
##🙌
##ῶ
##道
##ص
##⋅
##ṃ
##原
##💕
##子
##ȕ
##ी
##↔
##ﬂ
##Ľ
##Й
##Я
##̓
##Υ
##💪
##💛
##░
##⬇
##ῦ
##日
##̣
##Ђ
##⁶
##文
##😍
##○
##🤩
##◄
##█
##⁴
##💜
##մ
##Í
##市
##¼
##ǔ
##ג
##ט
##公
##😡
##♂
##₃
##💫
##✨
##🇭
##🙏
##平
##ǎ
##Ô
##ϰ
##☞
##↓
##ե
##イ
##😘
##ệ
##ῆ
##̑
##👏
##一
##♡
##կ
##∞
##Ў
##帝
##い
##ų
##📚
##💚
##ǝ
##😬
##ח
##ק
##ÿ
##✔
##😋
##ַ
##ּ
##😆
##ў
##Ч
##أ
##Ì
##↑
##ო
##რ
##Ю
##ἐ
##💖
##😇
##🌟
##國
##◀
##ϋ
##Ά
##Γ
##վ
##🙈
##Ř
##⁵
##ე
##ბ
##的
##ʲ
##😭
##☻
##ȋ
##👍
##∩
##⁄
##❗
##म
##᾿
##ვ
##თ
##მ
##Ѕ
##Х
##า
##海
##½
##♀
##Κ
##Ο
##Љ
##ɡ
##🎈
##व
##西
##👎
##😏
##🔥
##し
##と
##忠
##Ñ
##▼
##˛
##⚪
##🎶
##ĭ
##ŝ
##💙
##♦
##🍀
##🙄
##➡
##̂
##¥
##✎
##Ţ
##│
##😃
##人
##ὸ
##ṇ
##Ź
##☼
##👇
##Ő
##≡
##⃣
##₂
##∫
##上
##≠
##Щ
##☎
##Ν
##⋯
##♫
##国
##ὴ
##Ы
##元
##÷
##΄
##✿
##ế
##💗
##学
##Ɩ
##À
##🎉
##시
##ǫ
##🙁
##∂
##ʿ
##↩
##➥
##⚽
##№
##Χ
##ז
##≤
##地
##✊
##ΰ
##ร
##پ
##ア
##🙂
##😞
##🔝
##Β
##≥
##ġ
##̶
##¯
##น
##ֹ
##უ
##↗
##≈
##😝
##和
##▪
##藤
##😛
##🙋
##ラ
##ℓ
##◾
##三
##知
##在
##小
##😢
##☕
##😮
##ἀ
##Ա
##Ξ
##ल
##Џ
##😳
##💐
##▶
##✓
##צ
##李
##😲
##🔴
##Ě
##⚫
##˗
##♠
##∼
##固
##∗
##✅
##ʽ
##🐑
##東
##😱
##☀
##😦
##😠
##←
##⭐
##💩
##ԁ
##➤
##∪
##☦
##➢
##❓
##˃
##∈
##═
##死
##⇒
##⠀
##😕
##💟
##♬
##😒
##▬
##Ζ
##▄
##☐
##😥
##∅
##▫
##😯
##🤓
##็
##😈
##◎
##∧
##∑
##▸
##ᴢ
##∀
##□
##▀
##Հ
##▲
##➖
##Ș
##∘
##△
##ℏ
##😨
##✧
##◇
##◘
##ἡ
##ὁ
##Ψ
##Ḥ
##↙
##Ț
##Ō
##⋆
##✉
##Ἰ
##ἄ
##➜
##▷
##Ἀ
##ἔ
##♰
##Ἐ
##└
##∇
##⦁
##⇑
##je
##ra
##ni
##ti
##no
##li
##va
##re
##ta
##na
##ja
##ri
##ko
na
je
po
##la
##ma
##ro
##vo
##vi
##te
ko
##ne
za
##to
##ka
##ju
##ji
##di
##ci
da
##da
##ve
##lo
se
ne
sa
##st
##le
do
od
##mo
##nje
##me
##ru
ka
su
##ki
##sta
##ije
pro
iz
##sti
##ke
bi
ra
##nu
##ku
##go
##de
pri
##nja
pre
##ga
mo
##zi
##is
##po
##ca
##lje
##či
##tu
##ba
##ce
##lu
##bi
to
te
##pa
##če
go
##že
##mi
##za
##bo
##si
##sko
##še
re
##ći
koji
##lja
##će
##ski
##se
##do
##du
##gu
##sto
ve
##ča
##nih
ma
##ža
##nog
pa
##ća
##nom
ta
st
##sa
će
##gra
##ži
me
ob
no
20
godi
mi
##nim
vi
##be
##cija
##pu
in
##đe
Na
##pe
##pi
##ša
##or
##nju
##lji
##gi
raz
##vje
##ze
##vu
sve
sta
##ske
što
##lj
svo
##so
Po
##dni
##nji
##ši
##vr
##cije
ima
koje
kao
dru
va
de
ni
bo
##nosti
##rije
li
##ge
##rva
Za
pos
##om
ili
vo
pra
pu
ja
##rža
ku
##kom
##lju
naj
##dno
tre
si
kako
pred
is
##mu
##mje
##vije
zna
nije
##ho
##stav
##pra
Ka
##dje
##tiv
Ma
##su
##sni
##ran
pot
##red
di
##ska
##vanje
gra
nje
##cu
##rvat
samo
sam
pod
ba
##nt
##stu
ti
ali
201
##đu
##zo
godine
##zu
##nta
be
može
us
##đa
##sno
##zna
##liko
stra
Sa
##tni
##skog
##bu
lju
##šta
##ha
##čki
koja
##gle
##pre
dana
Ko
##oj
ži
##govo
kori
##nost
##šte
če
##isa
##vanja
Ne
ovo
##er
svi
##fi
##kon
Mi
mje
pr
dje
biti
##vni
##ona
pla
mogu
že
19
mu
Da
##ču
##sje
##00
##vić
##tra
fi
##vno
sva
či
##šti
tako
ga
nji
du
pi
jed
više
tu
##oš
##rija
##rt
##nti
##rati
##nije
##nici
##nica
bu
##ću
##ste
Hrvat
##stva
##skih
ot
##tno
jer
Bo
pe
##nda
##vati
treba
tra
uz
##nika
ro
Me
smo
##dan
gla
##št
##fe
##stvo
Mo
kon
op
radi
Sr
slu
##tak
##ciju
ru
##vali
spo
bro
##reme
vr
osta
##čko
kra
ce
Re
##skom
Bi
Do
prije
Pa
##gla
bio
##skoj
vla
##vlja
##bra
još
##he
##čno
Ra
##zvo
poli
##ter
lo
##gre
sto
bilo
##stra
##dra
or
oso
##bro
ze
##spo
##što
živo
##for
##on
##rno
##isu
##mije
##lno
##vima
##tor
##nice
##bog
##kla
##sku
##ako
već
godina
##hi
ova
##tje
nas
##vom
##rom
bez
Ba
##čke
vje
To
drža
vrije
##vara
##lan
veli
mora
No
##vim
##nj
ak
oko
##lije
au
##ruč
##nima
so
##kre
##lazi
posto
##vih
ako
##tom
##vlje
##lni
odno
##njem
kada
nema
##cima
Ja
Pro
##gani
ci
##ciji
Va
##klju
200
##bli
##vori
le
##kup
drugi
##log
proi
Be
neko
ih
Go
##jek
zbog
##dio
##cij
ljudi
##lim
##vaju
##ak
##skim
nakon
##van
dobi
Pre
kom
##viti
##pri
svoje
##ng
Je
dok
kri
ju
##dne
obra
Vi
##voj
##telji
proizvo
##rni
##žu
ško
potre
10
pita
##nd
##lek
stu
Ve
sad
##lne
prema
os
kad
njiho
cije
fa
tr
ste
obi
organi
##stavlja
kre
##telj
igra
##ble
##vio
##ško
pomo
među
##bije
poče
sr
oba
##čin
##bno
##jte
nego
##ren
##tro
##ciona
##kao
##forma
njego
obja
prija
svoj
politi
##ven
##jući
##pla
##jedni
Pri
Od
##gleda
##menta
Sve
isto
##dom
##lom
on
##pisa
posta
jedan
##lika
broj
##uro
hrvat
##vne
##hva
##kra
la
kod
tri
In
rije
##sla
zem
##tim
##ar
bila
vreme
održa
stva
ove
##čka
ide
nam
##jim
im
poslo
auto
nisu
##rani
##star
##stve
svije
sla
##rti
##kri
##tko
##isi
upra
##stup
pose
##un
##rta
danas
novi
toga
dobro
##vog
odlu
##nik
knji
slo
##diti
sada
upo
fo
##ner
##rad
iza
##kaza
mla
##rod
tak
##al
##noj
##tne
taj
proble
dva
ho
uče
doda
##jem
Pe
##in
##zira
Te
##vao
jedno
##tar
protiv
##ltu
##rima
lije
tije
svje
15
neki
##tka
progra
društ
sma
Iz
mis
sre
##JE
inte
##sjedni
pove
##ranje
čla
12
poda
dije
zašti
nasta
Ni
##klo
##niji
rad
##co
izra
isti
koju
vrijeme
##pro
nad
kro
De
Ta
Zagre
18
projek
##nija
osi
br
##joj
ona
zdra
##vanju
koristi
tek
##nski
naše
malo
##meri
Kako
##vala
BiH
medi
##op
najbo
##jedi
informa
ok
##đi
pozi
##dru
jedi
##govor
##pada
dr
##čne
Ro
Ako
način
##žbe
prosto
sti
mili
zapo
ure
##man
ge
##ver
nika
##rk
gdje
##volj
Srbi
osno
##lta
##rio
##risti
##čaj
##čkog
##vore
##ur
područ
izbo
##vna
##ks
##pje
vam
##tima
##šnje
sred
ki
##an
drugo
##met
ime
11
popu
ču
onda
##ndi
##liči
##nama
##RA
##rak
tome
fil
ov
##tre
##teta
##telja
##nova
sigu
kojima
##jom
Ru
##lači
##čkih
##iste
možete
Vla
ono
##nosi
oni
##tvr
of
Su
##dna
rekao
##stava
izme
##nistar
##vnog
##vijek
sna
##šu
kultu
##vede
##nan
nešto
tvr
Se
##nira
##ogra
##bri
Di
primje
zavr
##šnji
zajedni
še
neka
uči
##rek
Li
##godi
##mogu
ovaj
neće
##lima
bili
##ška
##pak
##vila
##tan
##sne
##rne
Du
Bu
nekoliko
korisni
##stru
dio
##pli
##zulta
odre
trenu
##gli
##čni
##vodi
##hu
sli
imaju
##govi
ča
par
žu
##mis
vis
čo
kaže
##il
##dar
inter
kroz
preko
##stri
##ški
budu
organiza
##novi
pozna
##men
Ju
Euro
##nera
##kle
mjese
Jo
prava
##vreme
poja
##uči
##liza
pravo
bude
##nuti
jedna
ri
##tet
##vnom
##pis
30
teh
##vnih
ht
##dova
pret
##tku
svako
Ha
put
ope
##tke
##bora
kvali
199
srp
jezi
istra
##šće
##sre
##šao
dan
gu
##niti
prili
##tua
svojim
##publi
između
al
vas
kr
##sle
##NA
##nske
prvi
##bje
predsjedni
hi
##tori
pje
zah
##eb
##uze
ras
loka
Ku
raču
##govara
grad
veći
vrlo
strane
ši
uspje
tro
##tna
##loga
Sta
uvijek
##lna
##NI
##jih
14
Si
proce
Ova
##gao
uvje
građa
šta
Hrvatske
##meta
La
2018
želi
napra
svoju
sluča
aktiv
proda
rezulta
##stvu
svih
ovog
pono
##lova
posje
doma
regi
000
nu
spa
kojoj
mode
mno
gle
##više
sje
##čan
govori
puta
13
##cio
##žno
##tem
##rna
osje
vlasti
Tu
druge
##lnih
odnosno
osoba
veliki
##lnog
lje
##mati
##štu
##vija
umje
proš
##rana
klu
Republi
sadrža
Tako
##liti
##jan
mate
##jedno
voj
##vez
njih
16
##tp
vidi
dvo
uklju
##slo
koliko
##đer
Nakon
##žda
##ksi
##tora
##cijama
Srbije
vije
gru
sati
Gra
Le
##ST
naš
zad
ovom
život
NA
17
finan
poku
ponu
Ti
moguć
##el
dalje
Pred
##čna
##mina
nalazi
kojem
čak
##laga
##gađa
isku
##laze
##stitu
oda
tele
kolači
član
for
čita
sku
##zima
##titi
##unk
##bar
jednom
vodi
slobo
oče
bolje
bra
##tri
Hrvatskoj
##lih
one
http
potpu
##vro
##ranja
##ljivo
pru
##nka
##vac
Pu
gleda
naši
izda
##vra
izvo
##com
uslu
naro
spre
bri
prepo
##sna
##taka
##isam
##dije
lu
najve
vra
poslje
##čkom
##stupa
hr
stude
smje
##kti
##fa
zi
Sva
##vesti
##rka
osigu
##ntra
omogu
gospo
zako
##gen
##tjeca
##plo
tom
Ali
##erce
Među
##nio
SA
mnogo
##vite
##vre
Fa
puno
##kav
##tio
##blje
##vili
svim
Nje
funk
##kova
struč
com
Naj
teme
svjet
Op
ar
##ške
##OV
##šnja
##nata
Au
ćemo
##nak
korište
##kovi
##pita
bole
##riti
25
##san
ljuba
ostva
različi
nepo
dvije
pokre
tim
##šlja
vode
##nte
Ce
istraži
vremena
Ho
##rma
smatra
viso
##duze
##vla
##takmi
##movi
##nicu
Al
##tovo
Lu
ad
EU
ha
So
00
vide
pripre
##nci
##net
##logi
mladi
##nović
##ćem
##isto
Ki
mnog
##rvi
posla
pogo
izja
##hvati
##ković
##voji
poru
##RI
mjesto
##RE
događa
##xi
##rane
##dija
predstavlja
Ga
komu
##kul
web
eko
##nskog
##ntro
nove
čovje
utakmi
Beogra
##jemo
Vo
svaki
tje
##sao
rodi
fe
kak
##stro
##ch
rje
##nce
##nače
##nuo
godinu
##kazu
minu
##đen
The
Ministar
##20
##dnika
##set
rada
##čkim
##laz
##rao
spe
kaza
unu
ener
##fo
Hrvatska
pravi
##raju
proizvod
rea
stvari
pomoć
foto
##đenje
direk
##AN
ništa
obrazo
pojedi
##bre
Fi
##dovi
prona
zlo
skla
niti
zato
Lo
stru
##ravno
##nstve
situa
nagra
ista
neke
usta
##riji
##vnim
##tih
oči
##vani
neo
##cama
sm
priro
Fran
##gije
postoji
##šenje
pokuša
župa
predstav
Kra
##spe
manje
Dru
100
##lija
Mar
##kr
##koliko
##vrši
##čkoj
dugo
dra
joj
##mom
pokaza
##vši
života
24
konce
##ktu
Že
##lovi
##nar
##čku
vozi
trži
nisam
##ndar
zat
zdrav
kla
##grad
sebe
##zija
##nike
bli
glu
Pra
##zma
##njima
##žiti
##rve
On
##lago
komenta
##dnik
Pi
##feren
djela
poz
##vana
preda
21
znači
Mu
stano
##tnih
putem
Tre
##tnosti
##JA
##liku
njega
##pske
##ut
tada
nazi
##fika
baš
intere
##bor
##ključi
radio
posle
profe
opre
pisa
##mir
možda
##jima
mre
##lnim
##pr
raspo
službe
Ima
##sije
elek
odgovo
##LA
Herce
misli
en
doku
grada
oz
ovdje
ZA
##ple
kru
##gled
##štva
kuna
bor
##šću
potvr
##dam
Ovo
ša
maj
druga
drugih
vrati
naciona
ispo
##piti
odgovor
posebno
##šli
Vu
##pred
poveća
vjero
##raje
pitanje
neza
dosta
imati
2017
##štine
##kli
kome
##nicima
siste
vidje
obe
Dra
##ćih
##cijom
##čnih
njegovo
##tivno
##ss
ameri
Fe
##cje
##pravo
stranica
Ca
djelo
##ck
##tiri
##laza
##nto
materija
promje
50
##zbe
Co
##LI
određe
##pusti
##der
ap
međuna
##rali
sezo
##šlje
##prije
##tetu
##snije
##ww
ana
priča
##kata
bih
Ze
otkri
##RO
ipak
##line
mjesta
naja
sasta
također
kontro
##nite
IS
pona
Ameri
##tica
zado
razu
##zije
miliju
www
slučaju
##ry
kraju
PO
##mpa
aktivnosti
Ri
##dina
##TI
području
##som
kojeg
otvore
vlasni
##vor
crk
##per
upu
novo
društve
Slo
razvo
nov
##ljem
jednostav
stran
##xico
##voljno
##tera
##šenja
problem
Republike
stanovni
##njih
pet
sudje
dne
##slu
pote
poput
##SK
najbolji
##ljo
udru
##nke
jednog
##ljede
##rži
dis
##vanjem
Grad
njima
uve
##bom
##dili
čini
##zni
##đenja
razvoj
Kada
##nska
##dite
poma
##gova
prizna
##zda
odma
22
Sto
tru
četvr
povije
co
toliko
odluči
stvara
pone
##lnom
ćete
sredi
prvo
##učili
ljud
Rije
posti
##kama
##NO
##nga
nosi
part
##bija
ulo
podataka
uni
osobe
fotogra
uži
uspo
poro
računa
##đena
jako
osjeća
obo
upravo
##lnu
posljed
svega
##ment
##laže
##tkom
##mena
##pad
važ
napo
pore
socija
četiri
sigurno
##vjet
##voje
veza
##TO
ću
potrebno
##ljena
sko
vaše
ovu
izgleda
Kao
okvi
Što
bes
uda
tijekom
##zaj
he
svijetu
##ljen
##vnu
odu
sami
prva
institu
mnogi
##TA
drugim
##jski
postoje
moguće
Dana
##nos
##ime
Hercegovi
##lić
tko
priva
teško
##žba
škole
23
##tory
##smo
nedo
meta
pruža
##nad
Lju
##blja
genera
##lica
##rem
obu
##tog
Saraje
zahtje
##dnost
riječi
znam
tehno
##čenje
sek
osim
##dnosti
##stima
stvar
tran
##glo
Evro
program
##sova
sklo
una
##zenta
zemlji
##jo
ovi
tamo
najbolje
traži
podr
fakul
##lik
sud
dolazi
poseb
Ci
odli
film
##razu
##mira
odgovara
Zagrebu
##mor
kate
##zne
mogao
##šća
##lost
Če
nastav
imao
##rke
mogli
##vlju
obzi
##vrše
prote
Nije
##jske
##VA
Ge
svom
##štvo
plaća
##lnosti
##ty
zajedno
izlo
##vod
##lio
##čić
##nca
pomoći
##ura
stranice
##šno
posao
opet
##rova
##TE
Prema
svaka
odra
##nzi
##gom
nači
često
susre
##mobi
vlada
utvr
kojim
ovoj
mene
ukup
tog
zemlje
##renje
##ženje
kompa
2016
##tki
Ita
##rava
##MA
Ar
the
prisu
poči
Zagreb
gotovo
nase
##đuje
škola
##ved
jednu
##rić
namje
milijuna
veliko
2015
opa
##ncija
##uma
programa
##tnika
sebi
##šku
##nskih
##kuplja
##gro
činje
država
demo
##th
tradi
##rske
##zor
SAD
##nac
god
##čnim
##rica
iako
euro
##ćeg
##šava
##čer
plo
bit
potreb
Fo
projekta
osob
Zako
pitanja
##veza
možemo
##ly
##istory
##cem
##kro
Srbiji
rekla
##bio
##ban
Sla
nau
##mišlja
##tere
žena
Nema
eki
##like
##čiti
kraj
zašto
ministar
kojih
zahva
##čnog
zra
##ista
##govora
potpuno
razi
ovih
##šić
##dila
##lice
minuta
informacije
##vnosti
perio
nis
reći
sport
imali
navede
ispu
države
##čenja
##teljima
pretho
upravlja
porta
##dera
predsta
savje
automobi
##čnu
kolo
fizi
HD
##NE
odmah
neu
pobje
svijeta
zo
slika
##KA
##vica
sljede
##nove
mini
boga
En
40
Kad
poduze
##pera
Uz
meni
značaj
##lazak
##rac
hra
boo
##bina
##sam
mjestu
izd
tih
##zem
problema
nama
Pod
2013
pora
zara
prven
dozvo
narod
završi
trebalo
kandi
##DI
##glasi
Mexico
ig
izgu
Svi
Gla
rata
##nsko
##ljeno
##jna
ple
pogleda
##sob
##zam
surad
##sim
dija
##renja
Hrva
svojih
Prije
svog
gospodar
dola
porodi
djece
najviše
##DA
##vaja
##žio
dovoljno
odje
proizvoda
predsjednik
##CI
##riju
##es
##ljeni
##ntar
##VO
pola
prilikom
okru
Novi
##đeno
Niko
##BN
pis
##čita
dizaj
Iako
Kri
and
##znati
žele
čeka
isko
svr
skupi
##kva
Tra
##ljopri
2012
##tnu
upotre
uključu
Samo
##mini
obla
uop
eks
VI
##mbe
kole
##jeva
zaposle
##žni
skladu
adre
##lite
2011
2010
opo
ISBN
napisa
##tova
Zna
ovim
2014
##čar
##pio
##en
##KO
zgra
deta
znanstve
stav
##đeni
per
prime
posve
am
Ovaj
polo
zanim
psi
##ćine
godini
Sre
gro
mislim
zdravstve
Spli
unutar
kraja
##tnog
tere
##tski
objek
##kade
sce
##loški
2020
##ok
očeku
##rtu
vjeru
An
produ
##kve
26
##oma
##njo
##gnu
27
uređa
28
Pla
##rnog
kvalite
##manje
njezi
##gor
potro
##VI
##nskom
##lici
jasno
##menti
Bri
##gne
##limo
pobo
zada
jo
polu
katego
njegov
svijet
##kad
postup
mogućnosti
##kazuje
sme
riječ
##lnik
Ži
oku
kandida
slije
prihva
##žan
kasnije
Spo
oti
konku
##sija
ca
elektro
##ćim
sim
rado
##tion
ogra
defi
##dima
mogućnost
books
osvoji
198
##rice
objavlje
bismo
##tivne
ekonom
svojoj
##tnim
novina
anti
##matra
kuće
Mis
##vremeno
njemu
piše
rade
para
Bro
Više
Kon
bolesti
preporu
mišlje
##telje
podi
spome
##dia
gde
video
poljopri
premije
zemlja
##lina
natjeca
bije
radu
Kom
##šla
obilje
konta
##lizira
##kna
čega
##kaz
##vamo
imamo
prome
##lin
njegova
Međutim
društva
Pr
redo
koriste
##mija
cu
zaštite
##DE
norma
pjes
brani
sudjelo
##rba
Vije
##jka
smije
zau
obavlja
internet
moći
informacija
kulture
grado
poslu
Ši
medici
tokom
dopri
lako
hote
gi
muška
onih
Inter
##lnoj
zaba
##dnici
nikada
opera
centra
izne
tehni
nogo
##stoji
kup
skup
##vnoj
ispra
zadrža
##vića
jedne
ski
ura
kazao
nova
##din
obitelji
glazbe
##čio
##pisi
##gija
##čnom
##den
##br
##ogle
obzirom
područja
St
##ljene
uo
izvje
time
publi
novih
##DP
mr
okviru
##fija
Uni
Zbog
čemu
hla
##sor
##logije
And
dopu
dobiti
##cha
##čak
it
ozbi
površi
žene
Udru
mobi
##lov
Osim
mom
##njuje
zabora
smis
naba
##dak
prijed
sigur
povje
##snu
tisu
repre
##che
puto
moraju
##štaj
veoma
cje
popula
buduć
otvara
Ste
ljudima
sata
bile
##stan
##dnom
moj
##um
zapravo
indu
Mla
svet
cilj
##rite
##žnje
##kt
##ton
brzo
mije
investi
Či
##nicama
bespla
naravno
##vine
##vlji
##njoj
Srbija
kar
tem
Isto
##rala
##rili
##glavnom
HDZ
zapa
omogući
Zagreba
listo
osu
pobolj
standar
odnosi
sum
poveza
studi
organizira
živi
poslije
pitanju
izgrad
ugo
završe
##kat
zakon
odnosu
koristiti
povra
stari
Sveučili
##lti
##ćina
doži
##žen
29
ele
##veo
doba
predse
postav
##leko
##stvom
knjiže
##lac
jednostavno
##losti
očeki
knjiga
##mana
##ština
##tnik
eura
gradu
ža
daje
##rano
usluga
turisti
##ld
pošto
##len
ljude
tijela
škol
##dnoj
Vr
engle
##snosti
##lit
mani
##snih
##siona
##ženja
međunarod
zvu
##čima
odo
##pisu
He
##gh
saj
trgovi
dobio
gre
Njema
Hi
dosa
agen
##tivi
isključi
turi
##jar
naroda
uspe
prima
nikad
lice
##ber
niko
posjeti
kona
##jskog
reci
svima
biste
ponaša
##njen
Ob
raspra
##ćima
dijete
Stu
zla
um
planira
strana
djecu
ke
##lka
##teri
Bra
svakodne
##ll
##tnom
usluge
utjeca
donosi
vidjeti
##šnjeg
##kar
velika
velike
sprem
zema
pristup
bol
arhi
građana
knjige
nasi
##žić
##bama
predvi
##drža
netko
##nula
festi
subo
Danas
razloga
reprezenta
deset
optu
##žbi
vozila
##tivni
svakom
iznosi
##bili
##sli
otvori
##rama
##fije
njegove
vrh
konferen
životu
##čeno
želje
##sak
##gan
igre
##listi
oto
##vnik
odgo
blo
čovjek
edu
##rum
karak
dobar
kli
Zakona
KO
##šlo
##prav
zatim
##tiva
##vjeti
izbor
##50
klju
Europ
trenutku
sle
Gospo
mladih
šest
broja
kriti
##luje
naših
Drža
Vje
II
##ljak
izvan
dina
Crk
traja
##osta
nivo
zaštitu
pored
izuze
##njak
##jno
01
##mio
bora
gr
potrebe
kupa
podatke
31
##kta
Is
njihove
ozbilj
vrata
moze
Odlu
##jekata
specija
##vode
at
##VE
gubi
Dje
Predsjedni
##žila
oslo
ovoga
vezi
##ture
kolačića
hrvatski
istak
zanima
##ler
slučaj
prostor
Francu
Vlade
##cijske
mali
Zato
Zo
obitelj
suda
mogla
##logija
europ
##čara
History
dokumenta
Ivan
raditi
Grada
##cy
životi
mjeseci
zakona
napa
preu
##nin
izvr
##jatno
vaš
razdo
Alek
nače
zaklju
zabra
nesta
uzro
HR
Može
sustava
naru
##ćeni
kva
komunika
Mari
stolje
##baci
2008
stro
ispod
##dnih
imala
drugom
##snost
09
##hra
##nese
vrijednosti
##rnoj
rece
ukoliko
kuća
sarad
moje
##vice
pripa
nekim
sup
navodi
upozna
parti
194
iskustva
##rea
Gu
##tnost
##ljiva
nadle
neda
potra
kući
građe
nada
natje
##vina
##čeni
##ris
##love
postoja
brzi
ek
##kcije
2009
visi
##žili
60
NE
lak
##nijih
telef
imam
sustav
žive
Oni
zamje
profi
##son
Prija
##ME
Ona
##šiti
tj
podrža
itd
Isu
poboljša
količi
197
pros
ponovo
razmišlja
##žava
##njom
identi
##tske
tema
aplika
##gdje
Bosne
novac
idu
uglavnom
sja
Ukoliko
glavni
##pije
Univer
Raz
pročita
om
Bog
Milo
##đene
##nicija
##vet
##pan
##rmi
Tur
06
šte
TV
doći
prve
##cijski
nedje
osobi
promije
ver
ozna
bolji
blago
##vajući
zemalja
Naime
dostup
kolačiće
##pira
##ziju
##tek
Žu
kilo
##nča
veče
##miti
prati
##val
prostora
Slu
stranici
imate
kupo
izbje
##voza
napada
##ćuje
zaista
sadržaj
##žne
manji
nedosta
##jskih
fu
akade
##čen
##lnika
##ft
##pom
Ča
razvoja
##ženi
##ster
komp
##dže
ruko
Voj
##gosla
djeca
##kcija
vise
korisnika
##biti
##dri
onaj
##dnog
troško
##ćen
##volja
##lnost
##vca
vre
Ke
deo
##stre
bar
08
prvom
500
plani
ispred
Or
##vijesti
ogla
nado
##OR
##rodne
okoli
##dnu
##dine
paž
cent
županije
našim
izmje
##kraji
sedam
sezone
strate
Stra
##ljiv
radova
##voz
miliona
veze
žrt
javno
##rnih
stanje
priti
započe
##tina
dati
2019
servi
jezik
##gina
##BA
uze
razliku
nudi
nemaju
##čica
zadovolj
jezika
##LE
##OVI
shvati
##nila
##qu
prepozna
##ljenje
duho
redu
##dese
lica
profesiona
##kazi
koma
meto
##oki
##nuli
sjedni
##nili
Josi
kame
potencija
##vnost
##jete
poslova
##vama
hrvatske
##ramo
milijar
##rila
Wi
##žena
trans
postavlja
toj
iste
ljubav
prikaza
##njaka
tempera
##šni
##boj
##zora
##mima
##kove
znanosti
##sh
Upra
trenutno
Također
New
sredstava
##jam
svakog
##ram
Mosta
##nde
Vlada
ograni
##tin
##njeg
siro
##obra
priliku
ostale
##isija
##jska
ranije
str
tera
televi
korištenja
JE
sklopu
civi
bla
visoko
Još
naša
novog
##sima
Ot
kojom
zaslu
čiji
voza
as
##njena
##klu
tijelo
##nić
provje
mjeseca
##iz
rizi
##LO
Beogradu
teo
prvog
##vak
nismo
kn
Beograd
##oo
potpisa
niz
crkve
dese
sv
proizvođa
diplo
vanj
##lak
iskustvo
nalaze
ruke
Srp
##ljivi
prakti
zajednice
##rena
##vred
sadržaja
##niju
##škog
##rnu
želite
društvo
nakna
klasi
Vladi
nared
prošle
##ruž
##tić
Tr
Jer
Gr
uopće
Kar
mlade
našeg
crve
našoj
stvarno
šu
##snik
domaći
##nose
predsjednika
ljubavi
##čina
##čena
iznena
napre
boja
barem
##cka
Še
potom
sazna
Kr
člana
Ana
ispla
rezultat
sposob
jos
trebao
kata
izjavio
znaju
##tili
##tnici
##tanje
znanja
vrsta
##svim
##ise
##zno
mese
##žite
regiona
##CA
obzira
putu
centar
van
##vora
dogodi
svake
dve
##lozo
snima
##nisti
##snim
##rd
##ćena
presta
##đuju
##vci
##kić
duž
name
##pušta
nemo
stranke
stoji
jedino
nekih
početkom
grupa
zagre
##tivna
naći
Dubro
gradonače
napraviti
svjedo
SE
postu
drugog
km
##škom
##wa
poklo
stanju
2007
##vodom
osam
##dama
odi
razre
novu
##tila
##snog
##čuje
supro
epi
skoro
##rski
##dana
Zašto
Koso
fina
boje
korištenje
svib
##ns
fran
istraživanja
##čuna
snage
najpo
energije
posljedi
##vid
##dro
ostali
03
##vač
##JU
Vam
##ljujući
kola
sredstva
Ber
Naravno
godinama
Bož
##JI
Ša
prilago
djevoj
##intere
prihvati
35
biv
mijenja
samosta
##nko
Dok
tržištu
njema
##kvi
potpo
članka
Evo
počinje
Oba
Hercegovine
poe
trav
##ćenje
članova
04
Por
##ljenja
##bru
položa
Slove
moja
##tura
male
dolara
Tom
moglo
dobili
##pnja
njihov
pada
muzi
primjer
preduze
##liki
##čnosti
stre
90
##štvu
teri
vrste
hoće
sije
##cira
Ministarstva
početka
Svjet
Ipak
statu
Dakle
##UP
ljubi
nesre
##tivnih
dobra
utakmice
grupe
sasvim
##rina
novim
##čaja
Vas
kredi
##cioni
poljoprivre
##njim
nekog
##nskim
##lla
##tine
dijelu
nitko
196
projekt
##fu
metara
radni
parla
uvek
indi
stanovnika
evro
ukupno
karije
san
##nku
##nijeti
ponovno
jeste
glasa
učenika
##čnoj
vu
##reni
Ministarstvo
##drav
neku
##vcu
zele
05
različitih
##jedinje
staro
##šim
sluša
##čije
##risa
savrše
javnosti
sama
vraća
pošte
ume
kolek
##meni
kazne
##jni
DO
uto
podršku
listopada
kluba
evo
Šta
Međuna
isključivo
##čari
daleko
promo
##jne
##cebo
##tr
najmanje
npr
albu
##mova
Naciona
priče
tradiciona
psiho
kana
Hrvatsku
svakako
učin
##SS
navija
cijeli
##kretni
organizacije
dao
Prvi
nastu
zavi
krea
temu
klub
##dić
najveći
obave
Sada
mail
važno
hrvatskih
RA
novca
07
novom
oblasti
glo
regu
inf
dođe
osnovu
##stoje
##deset
unutra
slike
##ksu
cijena
prijatelj
dobri
80
iznad
Kori
zbi
priprema
tiče
##pto
##tel
inicija
##mica
##važ
Bio
kampa
##zom
##tisti
DA
biće
strani
preuze
postaje
interesa
##pija
##mes
45
##čine
zu
petak
sporazu
smanji
##stoja
njihova
finansi
direktor
Sveučilišta
Mila
pripada
##ksa
dogovo
takve
prosi
okre
uzima
miro
ode
osni
og
ožu
##MI
orga
sistem
##dba
apa
##kako
očekuje
imovi
Mislim
70
KM
odluke
smislu
manife
igrača
SP
##miju
pravila
##tac
presu
demokra
Sarajevo
koga
##šne
obrazovanja
Bar
postao
Tri
sutra
##kazuju
##gita
loše
##MO
##21
periodu
našem
##dim
inače
##BI
savez
##rko
školi
vjerojatno
stvori
reze
##neta
pak
Jugosla
izbora
jest
##vale
čine
muze
Osno
takav
##prija
čove
filma
propisa
organizacija
##štini
##mer
defini
podno
hrane
prenosi
Cha
PRO
ose
Dobro
##zme
300
prista
odigra
dodje
##naca
tisuća
predlo
zapošlja
##godišnji
##lovima
ispita
##sci
##tive
Progra
##vača
njoj
iskoristi
ocje
studija
pobe
zastup
preki
karti
##voda
ovak
uprave
jedini
vid
takmi
##RU
##tije
račun
odnose
saop
Con
##ali
2000
##rona
naglasi
uključujući
##SA
razvija
matemati
kažu
struktu
početku
umjetni
https
##lili
navi
ovako
##žna
##cke
anali
našu
ostalih
##šavanje
##zuje
smanje
zaintere
Zla
prirod
većina
Hrvatski
upla
##laska
##gama
stalno
##sjeća
ukra
autor
##var
##hom
##kim
Gi
ugovor
Treba
smrti
srije
sc
pacije
##raž
pronaći
dobije
turni
KA
dokaza
upa
Skup
cijene
nju
vlast
posled
suko
##vane
lijepo
izrazi
##siti
##dnim
promjene
usko
##est
vjer
online
Sad
eduka
##dge
tvrtke
gore
ulogu
Osta
nega
##ght
dakle
##đenju
##njeno
RS
Ško
##zmu
##ljive
reda
traže
MA
Izra
##menata
##njaci
##valo
došao
##ranju
dece
svibnja
znati
##NS
Gor
em
##dove
##vam
obliku
tekst
##raka
nekom
##STI
vec
podu
prosla
SDP
mjesec
Jedan
Možda
časo
vijesti
##blju
##ou
02
sura
državi
Pos
emo
##čito
zagreba
takođe
mjere
##stoj
sadrži
##stom
rujna
super
sveča
##niku
##clo
an
MO
##ćenja
Itali
##mna
provo
povijesti
##haha
prof
teži
objasni
upisa
medija
##rnik
IZ
pregleda
vidim
radnika
ravno
svemu
##zv
id
##sen
Europe
Bosni
funkciona
zdravlje
##šnjem
##pt
##ntima
##les
najče
Ono
##čević
energe
##vka
##rent
##bila
umjesto
Agen
javlja
roku
36
učiniti
##formi
prora
supru
kombina
Srpske
proši
kuhi
##snika
subotu
školu
krimina
rezultate
Hvala
##zan
samou
proces
članovi
razumije
Hu
##stina
##kada
##CE
susta
Br
Ad
pogre
##ministra
upozo
veliku
previše
ur
godišnji
odluka
zaštiti
ulaga
##cijskih
google
##tnije
prosje
omoguća
marke
ovla
tvrdi
##pedia
imena
svojom
hrvatskog
održati
mreža
dela
Ili
Radi
česti
kapita
Slobo
ošte
neop
Pravi
ugovora
##njuju
##lar
##veli
podaci
##šna
zaključi
muškar
##cyclo
forma
čime
rat
nagla
blizi
##chi
reži
njihovih
odbora
##struktu
pode
huma
##10
pogle
fon
##čice
sistema
jeziku
Pose
uku
Facebo
Mostaru
Us
ugro
umi
##skoga
kapa
travnja
građani
razvoju
##veta
##onal
Federa
manifesta
##wi
francu
mnoge
Institu
##teljica
##ziji
##nk
Boga
izgra
##žalost
##šavanja
ruku
jednoj
sat
Nova
##lović
čovjeka
##giju
##vljen
tzv
koša
Osije
##ras
##ad
plu
broju
##AA
##stiti
trebali
##tovi
dobila
##ćom
##ger
kvalitet
vrhun
nede
materijala
izno
invali
jedinstve
##žbu
došlo
##vljeno
htm
naz
odluku
nadlež
ponedje
širo
##čava
Vuči
formi
ubr
##šten
vama
Taj
partne
BI
##mili
uvo
##vljuje
##EN
lipnja
more
smrt
gosti
##pili
velja
insta
pogi
##isao
##pila
##lega
razgovara
izvrši
simbo
mesto
RH
##čili
stoljeća
pli
##vano
##let
##lena
##ws
momča
##rodni
Novo
proizvode
Sje
drugu
oslobo
##sio
Haj
pake
Bilo
##bla
anga
bira
dijela
sastav
Doda
dolaze
Rusi
med
OD
siječ
podije
##mora
##pora
2006
neprija
##tla
pou
##ljka
##ntu
svaku
maksi
navo
seku
MI
##ntona
njegovu
ističe
Cu
##čnost
##čaje
čije
##mos
odnosa
##reno
##loj
elektri
##ženo
Koliko
pregle
##vski
##vnika
oruž
izabra
krivi
sub
područje
##ćeno
plan
##tivnog
##mske
organizaciji
##tnoj
promet
rješenja
Čo
##menu
zdravlja
##tike
vremenu
##pit
Gru
voda
politike
stavlja
##gar
Marija
temelju
javnog
##lizacije
##us
nekada
##tual
pokazuje
##zirati
izazo
##nsku
##vlada
najvaž
32
ideja
##ćoj
preuzima
govore
tjedna
projekata
##can
ovde
2005
Ove
konti
##stvima
##rigina
##tanja
tero
četvrtak
nastavlja
##put
priču
pame
doče
##rijama
Cije
##tika
reak
dobre
globa
stabi
##snom
##vit
37
zahte
##lon
##mpi
##ten
posu
obeća
Ivana
odred
noć
dodao
pristupa
potpunosti
NATO
Lon
trebaju
partner
pobije
automobila
ekipa
šan
Boš
poslove
industri
proba
pridrža
Regi
javne
neopho
ostati
Pogleda
resto
cilje
##šan
##tali
pravu
centru
velikog
priho
33
##bilje
učenici
##rović
Zem
obrati
noći
dalj
pokri
##žnja
sed
##jskim
početak
##ct
##tosti
Car
##rene
nedavno
logi
kože
vole
##SP
##toli
prostoru
oce
##toru
uvjetima
moramo
sjedi
poziv
##tite
##rku
##pravda
##ljenih
##gri
provodi
profeso
lop
Vaše
tebe
kompanija
pob
nes
##lma
različite
banka
banke
Balka
##lama
digita
situacija
##logu
##LU
Obja
##hani
nepri
##hvaća
##lozi
juna
trebala
članak
velikim
Kod
Radio
kazali
tvo
nastupa
##dimo
##slav
##fti
kakav
Aleksa
ala
klije
##deći
ponude
##šen
##kse
Mogu
poko
propa
##lila
probleme
snim
fotografija
povodom
budućnosti
soli
sudio
##am
počeo
mišljenje
ožujka
##cki
sjeća
##metara
##rine
##jevima
traje
međutim
činjenica
papi
##lacije
bitno
spro
dubo
38
##snici
kontroli
uskoro
zemlju
procje
održana
##tle
snaga
odnos
fakulteta
Župa
srca
nemogu
##gna
##vljeni
znamo
##klanja
gori
##id
ostaje
ostvari
speci
cr
##bur
nazivom
##lle
##min
##fici
##jskom
vike
viru
fak
nesto
telefon
testi
građevi
rješenje
Drugi
Gore
zemljama
##vimo
Encyclo
##kte
ugovo
lakše
Poli
##janje
pogled
sporta
zvije
voli
mlije
Dan
njegovim
polovi
poziva
Bez
ulaz
prijave
ostalim
##NU
želim
razlog
onima
postupak
##SI
baze
##noga
ostalo
sveta
##vljena
##vat
##dbe
##vilo
kapaci
prave
obrazovanje
##rate
done
društvu
crno
Spa
bivši
##logiju
##rat
pogotovo
kompanije
revi
Knji
Ov
nauči
##zin
adresu
objavio
manda
reko
##ših
Sarajevu
borbe
političke
razini
veće
##dago
obno
##diji
došli
obično
##đivanje
##obraća
igru
##tru
Mje
policije
##mila
Poče
snagu
odgovaraju
izaz
efe
komentar
suradnji
proizvodi
svetu
svu
pretra
Špa
##DEO
konkre
##žem
iskre
naslo
volje
##solu
korak
##ara
##djela
izuzetno
##fri
Ču
proved
##mentu
cm
model
##rs
nagrade
##jnih
rast
blizini
Općine
popra
kratko
bici
novinar
Projek
##ruje
nekretni
##rup
##dnja
povr
autora
stoga
prirode
datu
##koho
##ptem
nadzor
##plom
organizo
NI
Europske
susje
postati
parki
godišnje
##rastruktu
šeće
srpski
ravna
VIDEO
##shi
##vela
oču
Petro
odbra
dinara
reče
##ни
roditelji
uli
tip
usmje
##zori
gradova
##tost
Fakul
stavo
Split
zove
razgovo
budže
##novima
portal
napisao
engleski
zajednica
zatvore
namije
##đenih
Upravo
##ee
Am
Wa
RE
krvi
utakmica
meda
policija
odsto
najčešće
vodu
uki
Centra
srpnja
Tele
ponekad
riječima
##jekat
opštine
PD
spomi
##jmo
Sport
zahvaljujući
potica
prav
Crne
lokalne
Kre
komple
sin
daju
Rado
##šćenje
Već
napla
pribli
njim
##čene
prikuplja
##troga
org
##peri
karakte
okto
##ya
post
Stoga
Marti
prosinca
##ruža
detalj
##laca
niste
zvani
Hercegovini
bre
unije
iznim
##STA
siječnja
izvor
##žene
##ntno
vodo
ljepo
##tija
##šnju
osigura
sni
##jica
moć
##sigu
Os
##ir
pretpo
ubije
##por
Mate
prodaje
PRI
Micha
##raca
2001
agre
bisku
infrastruktu
34
zadu
##rin
##tam
suo
Dr
njihovim
saobraća
bivše
##aa
mar
prvih
sigurnosti
Doma
Nikola
html
##sić
kvaliteta
klubo
##rata
zatra
atmos
##nut
origina
čvr
fotografije
morate
gol
##šio
dali
utorak
Luka
##kedo
inova
##tivan
čet
vratiti
skri
potrebna
odabra
drugima
jača
##štaja
prodaju
Tije
predme
##KE
##GA
možeš
Slavo
krei
Hrvatskog
mediji
rela
##loge
uti
##stveno
##ljom
mreže
ratu
Wil
nevje
##njeni
odusta
##ard
slobodno
Pored
For
##vot
GO
preci
vina
obrade
komenti
upora
istina
##likom
##isla
##duje
jednako
##džbe
podacima
Crve
budući
gradi
##ljev
##ziva
gor
načina
kuha
Cro
Tko
tam
##ст
proizvodnje
udruge
pat
##voren
dječ
vrijednost
pomoću
instru
predi
Com
laga
list
Tuz
2004
nikako
statisti
utica
djelatnosti
##čila
##sama
ska
##PA
molit
administra
novine
##šnjih
poža
##vinu
##mić
Jedno
novča
San
drugoj
umjetnosti
##ote
dodatno
195
veća
##dnije
srce
prilika
red
vijeća
Jedi
ujedno
mesta
SR
pridru
razno
ured
##zacije
##luju
vese
nao
stanja
Najbo
politički
pristu
roditelja
zgrade
pažnju
poti
##ljep
dro
sprije
##posle
budućnost
obvez
##veni
##ljda
Informa
samom
Sti
##kog
ST
pamet
##ford
vlade
septem
opravda
velikih
rezultati
UN
korona
brojne
nezavi
utje
##vrije
stranicu
##ра
##ssi
intenzi
razreda
izo
ispa
kupiti
mala
##ćemo
SU
temelj
400
evrop
##lski
životinja
udo
##vremenu
počela
stranicama
izve
kor
bilj
PRE
vita
politiku
predstavnici
događaja
Hrvati
Kla
Jedna
alkoho
mjera
##kih
Srba
napu
##cno
odmor
htje
##gno
##lini
kolovoza
tjedan
##raz
pomaže
car
Prvo
toku
treni
reli
##spek
##rska
ciljem
##mp
hilja
Marko
ino
Google
##tivnim
smi
sliku
##dnica
onoga
glaz
sl
##mat
##čenju
##netu
naju
briga
istraživa
atmosfe
ponedjeljak
portala
##zanje
##ret
veljače
Tro
osnovne
##jana
##dran
njegovog
191
##toj
Komenta
modela
institucija
zahtjev
istom
##voljan
mir
prosvje
kršća
##ZI
programu
foru
Hrvata
konačno
naziv
150
bas
lista
uspješno
efika
svrhu
##štena
dobija
##spi
igrati
Vukova
Fu
##nov
bavi
##žavanja
akcije
Ope
Istra
##dilo
progla
nikak
##volu
##ravak
##36
nagrada
poduzetni
stepe
##tara
##čem
##mani
najboljih
##toč
maksima
##iska
Auto
##prijed
znak
svoja
javnost
##šića
##Bi
48
Politi
općine
siroma
konkuren
valja
Nisam
održan
nedjelju
prigo
tehnologije
dosada
##tira
kompo
želimo
Brita
##gori
kine
dnevno
otac
uklo
##land
preži
##vju
Moj
Tak
primije
praz
strada
napusti
##novića
održava
Službe
##strije
##lip
staja
2002
privatnosti
##mente
##zacija
karakteristi
olak
princi
naci
komentara
##sira
dom
ustanova
##rovatno
očito
##vena
usa
Opći
ter
Meksi
##čnici
Ap
Press
##jsko
koali
povu
razmje
različitim
##isije
njihovo
moram
politika
2003
Čla
sindi
odvija
##zio
udruga
Bran
pozor
konzu
minima
##tama
##vari
##štava
neiz
filozo
postala
Lije
provede
autobu
borbi
mehani
poka
tržište
##ph
obavez
Tomisla
volim
pusti
##vnica
slede
##žuje
bibli
##loške
scena
##PO
##tice
velikom
medijima
prisustvo
univer
##dor
ići
##nomi
##cijskog
Svaki
Sv
apri
samog
vrti
odgovornost
Organi
prijatelji
Republici
##nijeg
##od
državne
prvu
##rme
razne
##но
##slima
##mla
tekstu
##tal
majka
takva
klima
Dina
Encyclopedia
aktivi
teku
vod
uređaja
razo
##kuje
čija
predsednik
prolje
opreme
Tek
Obra
održi
garan
Vis
##BiH
Michael
predmeta
Neki
##šnog
kupu
milijardi
treći
vrhu
##yer
evra
osobnih
##kati
##vidu
Igra
kandidata
povre
oduše
sho
41
##mene
treće
slično
##cal
kise
situacije
multi
top
uključi
Wor
omi
izborima
fakultet
##dex
##SKI
##timi
##bičaje
okuplja
teksto
kakve
Beograda
##zama
znate
##ting
privre
duži
prijatelja
##žavaju
apsolu
negdje
jučer
isklju
sljedeće
ogrom
Hajdu
sobom
Zakon
##šteni
##nes
##је
obezbe
osjećaj
raspolo
Predsjednik
glas
opći
##ških
Gre
poh
javnih
potroša
stanovništva
abo
ulja
##priča
##ncu
Varaž
specifi
pože
nastave
##mski
Miha
jugo
51
istraživanje
svoga
seksu
##kov
samoupra
teni
##ziti
Per
parlamenta
kojemu
##lske
history
##fer
prijedlog
##sur
prošlo
osobama
bje
##šo
utakmicu
##lacija
nemam
##vate
Pošto
unapre
##slov
nivou
##torija
amba
Banja
menad
njihovu
tržišta
njegovom
mikro
##nosa
##tona
##štenje
omogućava
Pozi
susret
pozdra
##nskoj
proiz
##kovića
##SKO
##ljivosti
##šnjoj
doživlja
trener
eto
##deo
Srbiju
vatroga
El
ME
postupa
srpske
tvrtka
klik
ćeš
projektu
Pogledajte
takvih
donije
##jma
obve
nepre
##proda
Centar
##ženju
hrvatskom
povijest
nagradu
putovanja
##lizaciju
iznos
##kola
Amerika
##vile
##terna
zahtjeva
vele
isporu
humani
premijer
nastaviti
##bran
ostao
39
Vijesti
##čaka
mrt
nastavak
Univerzi
##ranu
##mišlje
uma
studenata
##ćuju
##vlači
LI
poruke
nare
stavka
kvalitete
Sun
ug
Wiki
istovremeno
drago
##šnih
##žo
Facebook
krajem
zabilje
##ati
čast
Fil
prezenta
Evrop
##nuta
##tnica
55
tur
djeluje
okolnosti
posloda
posljednjih
smatraju
##rnim
raznih
##rajte
prekra
terenu
PA
preh
Kru
sela
knjiž
nogomet
topli
##kovima
##zdu
ubi
##limpi
Možete
pjesme
Ox
##rp
##tove
##kladno
pojača
dogo
bodova
nai
pojedina
jednim
193
pokreta
Mađa
real
pobjedni
Napo
procesa
košta
nisi
dono
stan
ulici
lige
Veliki
drži
ministra
prese
poznati
protek
##lizam
oseća
točno
evi
prekr
##spje
##vera
##KI
odabi
Nor
mana
radom
Gori
Europi
student
jesu
širom
Sin
##viru
##šteno
suvreme
znanje
bezbe
tehnologija
srijedu
proizvodnju
##šati
even
Prva
rok
izvora
##caj
Sred
blizu
##mac
Uče
mjeri
želja
##ol
Par
##sona
besplatno
##čnika
konsta
##ordina
sigurnost
##cionira
arhite
##ts
hvala
Mer
pregled
poljoprivred
ostala
##jsku
##pova
cjelo
korisnicima
##vljuju
Londo
43
Ser
Bla
Splitu
djeci
podrazu
Kosova
registri
fakultetu
##moć
Medi
##slovno
situaciju
stare
naročito
radnog
##boru
Mnog
Bije
fri
##piju
##ER
drugačije
##nete
nekako
raste
napad
glavu
about
##nina
turizma
nezna
##dnje
IN
granice
kuć
idea
završio
oblik
##ana
prvaka
##jevi
Posle
##ue
listi
inozem
saču
ideje
Zi
održavanje
##sk
##ćene
raspore
Festi
Cilj
Inače
##cro
komuna
intervju
termi
tvoj
rezultata
##dovima
konstru
##lizacija
odlučio
obavijesti
stupa
Vaš
decem
studenti
naf
##igra
njegovih
osvojio
reali
Drugo
##timo
novem
boji
građanima
procedu
promjena
##site
Srebre
cilju
Zadar
objašnja
prio
istakao
bana
Vojvodi
uza
pomi
##blji
financi
##vske
pravosla
znatno
Rusije
Zahva
bilje
##KU
##šak
##ker
##dica
procesu
##znu
##wer
Budu
kora
##laganje
mlado
članica
ponavlja
poni
Kro
Veliko
knjigu
bom
1991
Ide
kaj
tipa
##nogra
nece
##čića
Program
tebi
##vero
##fiju
upravljanje
uvjete
razdoblju
janu
osvaja
##mr
formu
navodno
Oxford
##šević
Aleksandar
##guje
kulturu
grafi
agencija
sveučili
poslovanja
svakodnevno
integra
nista
fudba
##rje
stambe
pam
Makedo
državlja
Narodne
valjda
Njego
rekli
Bru
1996
44
površine
ulazi
znao
uključuje
odobre
Tada
recimo
rasta
tret
isla
rođe
Miro
##bine
Velika
ponuda
Sveti
dogodilo
##pović
skupa
preva
##MS
reč
Rijeka
učinkovi
skupine
ostavlja
duže
napravio
##lišta
vrijedi
Ured
##cijska
kolu
Prepo
prihvaća
kuću
##OS
##tter
##njene
prvoj
osobno
britan
42
##91
jeze
same
zausta
preven
##sobno
##nilo
postupku
desi
TE
nepro
SI
naselje
ponudu
zamis
dokaz
##bić
njen
##pula
##ženih
distri
ugra
onako
Universi
Iza
ponudi
srednje
Novom
Najve
##tore
institucije
Milan
cooki
ama
podne
cijenu
uspjeh
##nui
vašem
iznosu
##TU
##kos
Dom
bogat
##ljko
vred
pogla
simpto
sastoji
omogućiti
devet
redovi
Nada
##vijest
Ante
kontek
##ul
registra
stranu
radno
##88
ospo
referen
Jako
grije
časova
razgovor
korištenjem
##vaj
##fina
Sam
##ČI
##jedna
trgova
festival
##pti
ispunja
##tuje
uju
##mice
##šena
Bje
onog
Takođe
##par
Win
kilometara
poznato
objekata
poruka
teritori
istu
predmet
komplek
##brati
period
##rže
osobito
Iva
mexico
eksplo
hrvatska
određene
##rnom
##vnici
nikakve
nara
plat
prou
kakva
potreba
Klu
wi
duga
##ljivost
krite
fra
##lture
##podne
pokazao
##BO
Čak
Yor
vidio
##ре
akcija
poreme
##tacije
tor
koncert
političkih
nepozna
kategoriji
##pisuje
skr
upi
##čani
##ley
##at
normalno
##kru
##ser
polju
75
Maj
##krati
izre
odvje
##žavanje
šuma
tuma
##et
ekipe
prilično
##000
Meto
misle
doprinos
##jić
prolazi
izvu
RT
bru
nazo
cijele
##govarati
sara
magi
poštu
smr
##roja
korup
ispiti
Riječ
save
vjerujem
##danje
Bogu
obzir
domaćin
##mite
##snoj
opisa
najvi
naziva
direktno
##tati
##cs
dre
##voru
prezi
profesor
nezaposle
##ebru
##dice
Anto
delo
Vučić
načinu
Poslo
lepo
##vaca
izbore
Neka
priop
##isti
ulje
##kciju
##tska
##gara
morati
Ljudi
pala
mestu
Pravo
Tijekom
radnih
naglasio
Bre
sposobnosti
spremni
120
blag
glaso
razvije
##sad
radovi
##strija
dvori
migra
prera
boli
Rusija
Kine
Komentari
##OVA
jel
uzbu
pokazuju
kožu
##tes
Engle
vidimo
dete
##šite
pridržana
Dodi
##mak
predstavljaju
##lci
regula
ugosti
##nulo
proizvođača
vlasnik
potrebne
##leta
dvoje
porodice
foku
djeteta
Đu
Nu
nastavku
predu
##bice
hotela
##nem
Ure
služi
protu
maso
temelji
Hri
kažem
Svaka
individu
Alba
trudno
##linu
##mentima
##stara
BE
Stude
Kor
##manu
obje
obaveza
Bor
Mostar
##tskog
Odluka
njihovi
opro
glupo
Ovdje
##tao
Jugoslavije
##dinu
CI
Međunarod
serija
plasti
uskla
##rira
proto
sino
kape
domovi
pije
Direk
##štima
University
##pendi
poznat
##VD
##godišnje
imeno
žup
Domovi
planu
##trije
pedago
atra
posa
Meni
teksta
tima
##han
pravosu
##ZA
hu
učestvo
poruku
dimen
publika
sastanak
##turu
Foto
Eko
državu
podje
situaciji
JA
Šu
##čnik
izložbe
igrač
kontakti
##tnice
##ina
motor
soft
Dalma
Narod
##jnu
slučajeva
##čuju
##valu
Obi
Spe
drza
tjele
dug
istaknuo
##bis
srpskog
igri
Stan
okoliša
sloven
predstavnika
Internet
donese
agencije
nastavi
av
telefona
sobe
natjecanja
uru
##laganju
osiguranja
Ukraji
izlazi
##bne
otpada
iko
##torima
gri
staviti
svrhe
stranka
jedinica
pokazala
dizajn
javni
##leti
partnera
građane
Vrije
poza
mišljenja
hranu
kće
##rovi
##zuju
##cie
uobičaje
##čavanje
##telju
radionice
Potre
46
##redi
##pisima
postupka
##hn
##vajte
##žnih
##tur
primer
##rove
##rov
##hija
reči
morao
status
telefo
Broj
siguran
ostavi
drugači
istori
pogledu
visini
gimna
društvenim
liko
##dnicima
##novije
objavlji
##teo
##škim
upotreblja
##vodu
žrtve
Lje
govorio
##ila
prikaz
izgradnju
otvorena
##port
Šibe
geo
vrši
##matski
zao
Pav
##oni
prate
nebi
čelu
FI
zamije
jutro
Ovi
zabri
97
##lića
##čaju
##leva
Pari
semina
fanta
službi
Ch
##tivu
odlazi
65
##loških
izved
duše
promijeniti
funkcioni
mnogim
razlika
stopa
dodi
kontakt
njegovi
eg
Crkve
mm
##žim
Zoran
##stupan
##turi
dona
uspio
Nji
primi
epide
festivala
##kala
gradonačelnik
nasilja
društvene
postane
nadam
FO
ciklu
##konstru
Ex
zločina
dose
##ktiv
##mail
tvrde
##dža
pogledati
prijateljima
febru
povećanje
##GRA
rukama
##pati
medije
filmu
bolest
logo
Rijeci
šire
Ustav
izradu
##BC
kontrolu
##vici
##ntan
odlično
47
jedina
naveo
glave
domo
##žnim
##nstvo
Naša
natječaj
godišnja
osnovnih
zadržana
Nove
##ljuje
Man
podsje
preosta
##sse
sina
table
DI
selek
susreta
utakmici
ika
##rci
gledati
Umje
slobode
kombi
##ljan
##dja
##šavaju
HN
##vniku
navode
osiguranje
##kula
##vin
ostalog
posebnim
makar
##šenju
vježba
49
Har
prošlosti
ute
##ye
vojske
Autor
##22
došla
nekad
uređaj
listu
počeli
cijelu
nažalost
##bert
masa
dodije
avi
##čun
##jskoj
##jeve
mati
zaposlenih
varija
pol
plaće
##sjeda
automobil
najavio
nužno
plaćanja
##šćenja
Muze
prijavu
Božić
oblika
Kosovo
pjeva
vašeg
Alla
dobru
apo
##ledge
onim
održavanja
razred
slijede
revolu
znali
Kata
Boži
##lli
elektroni
ljeto
naselja
##pustiti
##vnice
preduzeća
zasta
odgovornosti
trenutak
poto
tvoje
izdanje
Med
intelek
premi
kg
##hni
##lijan
1997
vijest
alterna
poručio
današnji
korist
##čnije
cvije
##gr
jefti
nogometa
imu
##vjek
sredine
istog
dodaje
komo
##hat
99
informacijama
zraka
##žnog
spada
##cipli
##graf
pravom
infe
govoriti
gosto
odbor
menta
##tskih
distribu
##spekti
##PS
##vljenje
smeta
sugla
konferenciji
hotel
izgled
OŠ
korisnici
##bni
predavanja
##nati
Josip
kantona
prvenstvo
istim
titu
večer
poslovne
Filozo
##minira
ispi
nogome
kama
potrebama
zrako
njihovom
##nsi
Isus
generacije
maja
raznim
kontinui
##ва
##manti
najvećih
Willi
gale
pokazati
Er
##DS
ote
aplikacije
razume
živjeti
prednosti
američki
oca
asiste
Pore
omogućuje
obro
##bs
ostav
Njemačkoj
borbu
m2
Dne
##ćeva
apart
vidjeli
takvim
##šle
##raj
Sko
zapad
uživo
##ed
starije
serije
##forme
Sjedinje
neposre
skupina
glasova
soba
bazi
posljedica
direktora
urba
veka
eli
ističu
diljem
usposta
kvalifika
album
Sigu
studije
leta
kosu
vidu
##neri
KU
##povi
##ktor
savjeto
Parti
prove
juče
Naš
##zad
postro
ocije
posljednje
nek
prvenstva
dže
##škoj
1999
filmova
##ruju
objašnje
koristite
njegovoj
krize
Upo
baca
kriv
poena
Rout
##mm
knjizi
stana
##bera
prilike
muslima
prido
Routledge
zahvali
Vijeća
ideo
##lično
##dniku
##zak
imaš
zanimlji
tren
##LJE
neobi
##pta
doktor
##đaju
dalji
##ncela
radili
##tnja
##25
sumnja
obavje
noge
Mnogi
prednost
zvez
Kralje
neovi
BO
vru
uspjeli
##SKA
ubija
minuti
spor
PU
Jadran
##čini
uklanja
##sati
VE
tražiti
projekte
visoke
koronaviru
US
njihovog
malih
moz
Wikime
zar
Zapa
Crkva
##pove
zajednički
##PI
sjednici
autori
interes
##stica
Che
igrao
##ranih
pogledajte
dostupan
kontrole
##ces
slaže
boljeg
##на
rečeno
geogra
##ls
##jm
iznimno
špa
Crna
Mali
socijalne
reagi
bibliote
sveti
granica
mnogih
##senje
##zati
##zaciju
Mladi
čisto
zadatak
Rezulta
##šili
ul
##rami
poseban
##prkos
TO
zatvara
stipendi
##15
obveza
početi
PDV
državni
napi
Mir
kupi
oprem
životne
plana
ujutro
poznata
prometa
njene
Gro
ilu
seg
prijava
slučajevima
##33
osigurati
##we
očekivati
argu
rođenda
polaz
mlađi
memo
Fer
vaša
Atla
Cop
spava
slobodu
saradnji
##dnji
svakoj
dosti
velik
trgovine
uzeti
izbjegli
##tinu
veću
radionica
ljudskih
##rskoj
ispriča
polako
poslovni
##ted
Evrope
ula
vodom
Malo
odlučili
razmatra
Pret
Stje
##loškog
##sve
men
pobjede
discipli
vizu
razdoblje
ae
##nal
Gle
zakonom
##živanja
govor
aplikacija
##dži
čovek
hoda
kilogra
##vene
htio
##tlji
riješiti
desetak
190
Molimo
kontra
kojega
##mnji
osobu
suradnju
subjek
##lište
Izvo
pes
mrežama
pobjedu
namir
sustavu
##tivnu
##crta
##lko
##hone
vratio
dovesti
##jati
mira
1998
##tivnom
najveća
pretvori
prijevoz
ut
glavi
Udruga
stručni
brojnim
koristimo
položaj
puca
##roma
Plen
potpred
nacionalne
##volji
##rujem
dodatne
hrvatskim
##nat
ukaza
mozda
pripreme
narodu
sen
##dnice
##lskog
54
Primje
korisnik
Italy
World
delu
##DU
lege
Godine
čim
poce
katoli
naselju
##bna
šo
sveće
nabav
porez
brat
##živanje
##ljno
optere
ulice
Njiho
OS
republi
naslov
spli
##đivanja
suz
Zanim
##đivati
bave
projekat
resur
povla
##desetak
cijeni
Oče
##AJ
ozbiljno
Andre
##zde
promatra
učenike
stara
vazdu
##dovolj
oktobra
##stavljanje
##ps
jam
odličan
podsjeća
arti
neod
učenicima
##spira
stigao
Skupštine
##ela
uslije
##slava
rastu
##jice
aktivnostima
grani
doka
optimi
troškova
##žak
najnovi
##ff
zainteresi
##67
napravili
##wn
##nstva
djelovanja
stri
Kova
maši
programe
međunarodne
signa
dodati
vašim
##dekva
pokazali
Petra
##30
You
molim
##torica
ten
info
novinara
svjetskog
državnog
rekonstru
pratiti
košarka
##tnike
Poz
cilja
strah
javnim
adresa
katastro
pomalo
jedni
orije
##štaju
dala
funkcionalnosti
Postoji
Dani
koordina
##došli
dosto
##spa
sekre
kosti
hor
širi
boravak
zalju
nađe
##mni
pomis
ekra
domaće
Kolači
HT
Trenu
##nče
ulaganja
Tomislav
sudu
##kinja
događaj
ambasa
inteli
razlike
sukladno
Andro
sreću
rođen
poslovnih
korisnike
vlasništvu
##ditetom
neću
školama
##80
Ža
zadovoljstvo
Nastav
potreban
premijera
predsednika
primjerice
Preporu
dijelom
opu
Španjo
dvorani
zdravstvene
inspek
##izvo
One
zapošljavanje
činjenice
večeri
William
HRVA
##II
##ncima
otvoren
Glavni
invaliditetom
upis
labora
nastup
pružanje
popis
voditi
samim
Filozof
momčad
##gović
##šeno
crkva
##nema
##siju
##godišnjeg
disku
Moja
##jke
eng
jedinice
dozvole
Udruge
feno
igrači
##cijskim
definitivno
počne
##taciju
mjestima
nave
ošt
##vencije
dovodi
56
lik
značajno
licu
sigurni
troškove
uspije
problemi
sop
##hvata
cer
donijeti
doista
##ot
Isla
hrani
zatvora
imenom
referendu
iP
250
##dy
Super
по
Film
stručnjaka
korisničkog
sabor
##heo
najveće
slijedi
1992
manasti
PR
##11
aktivno
##mci
hrana
igraju
Bila
komisije
##ljaka
crkvi
prostorijama
95
ostane
molimo
kultura
jela
preuzeti
PI
vidite
##AR
selu
##lska
nekoga
bizni
##lista
zauze
upita
52
##žnu
kolačići
prvenstveno
Oda
naime
Dinamo
promovi
kreće
polja
kategorije
Vuko
nez
##form
ustanove
##ljima
uloga
Index
znaš
nose
##tovima
cesta
objavila
moru
halji
ovisi
##janja
jedva
materijal
važan
upravljanja
momčadi
Viso
sezonu
županija
##jnog
zgrada
izložba
zadnje
ljudska
kose
uvjeti
Jova
majsto
potrebu
##yri
tijelu
Arhi
##finan
priklju
vezu
##čite
Ver
mada
pismo
stavove
majke
##que
izvrše
opozi
##čana
##prje
##ntne
stručnjaci
Sana
ostvariti
##ET
blog
##lmati
udar
ponašanja
poreza
Vladimir
##tov
rizik
avgu
bosan
najpoznati
##vljene
##hije
##GO
izvori
inost
##novo
razgovora
Poslje
pute
branitelja
društvenih
prethodno
Pot
Crnoj
vrednosti
postignu
##ron
nastoja
##šći
##CIJA
objave
otišao
upotrebu
septembra
najljep
##tinj
Rumu
Zvo
članice
potrebi
57
takvo
##woo
pouzda
linije
Japa
John
inženje
##viju
##mokra
Budući
Gora
pomaga
dosad
danima
vremenom
objavljen
Kur
##šajte
Hotel
uslovima
600
Bosna
penzi
Gdje
##tt
duboko
dinami
marta
poša
Time
##šeni
kvalitetu
Una
Chi
eu
komentare
pomogne
##zivanje
izbjega
pobu
pozori
##štenja
Novog
1995
##štem
prehra
otvoreno
dobit
trgo
prete
Pristup
smještaj
povolj
bolni
podrške
prisi
menja
osvr
prekrša
gradonačelnika
cijelog
forum
KS
##grada
pjesma
volo
devoj
sekundi
##ри
OP
##plji
brže
1990
morali
Goran
uništi
slabo
loš
Koristi
roditeljima
##šnjo
ora
maga
by
Mos
zaštita
ljeta
osobne
##tnje
filmo
kompe
stvore
izrade
posebne
svjetlo
Evropi
voditelj
raspolaganju
Drago
opisu
##šnu
##hla
##lizaciji
zadnji
Posebno
##zoru
regiji
stvaranje
sprema
##licu
Austra
naslje
releva
FBiH
##isiji
stup
##vini
III
razum
gospodarstva
linija
štetu
Genera
##lira
Ivo
radim
književnosti
obraz
ikada
objekta
##ljenim
nespo
We
njom
Tvr
Video
ponašanje
##stavno
##ny
Član
##žnom
fazi
DE
##tela
##dov
potak
##dit
prepu
tvrtki
anke
onu
poremeća
##čenih
odgovori
##ding
##stao
##nicom
##sov
##tniji
održat
ostaviti
sreće
##zina
odbija
problemima
obavezno
mog
##čje
nekoj
##gnosti
sporazum
Vrlo
verzija
dužnosti
izbe
klubu
##štene
uprava
##zanja
##nis
sastavu
fonda
zadnjih
Croati
##BE
reprezentacije
##šnim
jese
Rusiji
napred
preve
Polj
studij
net
Dže
kliknite
učini
sramo
##đenim
datum
posljednji
Kultu
pad
##šem
komunisti
najbolja
područjima
sru
pojedinih
svjetski
brojnih
##gnuti
preze
##lisa
spreman
prošlog
##96
prijedloga
litera
VA
funkcionira
zatvori
imovine
##tifika
cookies
sumnje
liste
razmis
obele
1000
dato
sopstve
školske
Petar
Dragan
uopšte
pregovo
glasi
Bur
umet
Kosovu
Zajedni
Ter
Kore
##lt
polje
poduzeća
organa
potporu
izvede
64
##PU
##los
prostorima
rezo
##laganja
robo
##ograd
decu
zanimljivo
Bli
prirodi
vjenča
##vači
našao
##vijet
savreme
Kate
##ntri
##zirani
ano
tale
izvođa
##jde
##DO
##tnicima
##part
Republika
projektima
utjecaj
Onda
fantasti
##vanih
stil
energiju
Ara
humanitar
malim
čokola
radove
pokušava
LE
##noci
##žuju
##zite
nukle
SVE
Svetog
posljedice
##rića
##vjeli
saveza
skladi
##vek
##23
##zana
probu
Tokom
##binu
min
funkcije
Nad
opće
##gore
porodica
hiljada
Sha
djelovanje
transpo
ženama
ex
preo
Federacije
nude
##tualno
internetu
Nažalost
iskori
uvi
Bel
FOTO
nemamo
Ale
Anti
skre
domu
teren
privla
##ро
##vec
programi
najma
akciju
crta
##ćnost
aprila
Smatra
##jnim
##gana
zapovje
uživati
HRVAT
Kli
##produ
Proda
Vukovar
##cina
Italian
liječenje
Kroz
Prijavite
studenog
informi
##torom
uzor
Imam
##gić
ovakve
industrije
##lona
mra
podse
53
nemoguće
smjer
proglasi
zajednici
Rea
praksi
upoznati
verovatno
Italija
##loška
glavnog
##lus
terori
Turisti
obliko
državnih
nijan
Koji
kale
##žnji
Župani
napravi
aktu
članku
Mode
dane
služba
većinu
Oso
isho
##njenje
##OVO
stje
##GI
Predse
##ćenju
obr
nositi
očima
##zerva
##unt
funkciju
smanjenje
projekti
pče
##та
Proble
opcija
raspravlja
lokalnih
konferencije
##šnjim
obraća
istinu
minute
pun
Usta
##noda
vijeć
stanice
roditelj
novoj
usvoji
##her
redovito
izgradnje
rs
opasnost
takvu
privati
pokraji
grija
kvadra
apsolutno
aktivnost
postaviti
lega
kaze
potvrdio
predvo
brod
bloki
bori
poslati
Proizvo
institucijama
pale
BA
##ons
američke
suradnje
##ntni
ise
##štinu
Ljuba
privu
župani
uhvati
que
Većina
domaćih
odavno
##xa
brojem
bolnice
naknade
donio
aku
##26
##dobno
opasnosti
opse
priprem
##rskog
sredstvima
Ukup
unatoč
krug
objašnjava
arhitektu
pravne
##lizma
Zdrav
##tala
platiti
vezane
pjesmu
deve
postali
sezoni
58
##zila
vjeruje
MUP
detalje
##jum
jede
##bit
zločin
sav
Nemo
##vljenja
gostiju
vlastite
štiti
##RAN
teže
zaga
ušte
Zar
Željko
Afri
##mpu
pritom
vrstu
sastanku
##gledno
Zadru
##dala
pozvao
osvje
##krea
59
##rca
Ak
##onu
spra
obli
Velike
##pilo
avan
##ntna
##mera
##pise
con
bate
šef
##berite
nećemo
europskih
##java
sviđa
poča
jula
interesu
izbori
dodatni
##mično
##plje
izgubio
lokaciji
ruka
automatski
izbaci
velikoj
vjere
vlasnika
Odje
stanica
hrabro
destina
ovome
Elek
##jE
javnom
tuži
Imamo
dužan
##godišnja
test
Osijek
temperature
osnovi
koncentra
radne
međuvremenu
važna
boravka
pritisak
životinje
analize
imple
##mda
dvadeset
dla
##ма
povratak
##hvat
morala
vašu
sektora
popla
Star
Naši
prakse
količine
analiti
baci
##vjeta
dešava
vladi
##mon
##phy
##SU
bolja
smanjuje
menadže
samouprave
kredita
napokon
Dva
pojma
zemljišta
##ima
from
##čare
Mitro
##yright
zate
čišćenje
Agencija
dvostru
opsta
##šnom
87
##sten
Vele
iskoristiti
posre
HRT
osposo
karte
priznanja
##istori
##žnju
fla
nepra
Hrvatskom
radnici
podnije
##nogo
prvenstvu
uzme
obrane
pomažu
zvijezda
##ANJE
raka
deca
##rijar
##fal
šti
stoje
otići
postići
radimo
načine
Odluke
188
odlučila
Dubrovnik
##juće
##ree
perspekti
poljoprivrede
komunikacije
sporazuma
##tković
##ла
Windo
##str
korisničko
odlazak
zase
osvojila
Sarajeva
savršeno
##SE
Sc
popri
dolazak
##by
##rojatno
Dragi
firme
Postoje
priznati
Save
jaja
Gar
##stavan
##kali
performa
obolje
glavna
znaci
veličine
##malo
zim
predavanje
učenje
rijetko
Zatim
relativno
##res
genoci
dode
praćenje
igara
##66
Web
đa
poje
izjave
Austri
sudjelovanje
Italiji
kulturno
poslovanje
adekva
link
Pože
BH
uslugu
на
spominje
prica
obna
CO
događanja
##zar
##tnji
saradnju
Kara
izdvoji
grupi
##đite
pojave
članove
Hr
IV
umr
kontekstu
robe
pretje
##dora
Crno
##čim
##mpe
proračuna
##voja
udruženja
##ljana
stručnog
postaju
kazala
analizira
četvrti
Her
ideju
takvi
##prilike
djecom
##ćenito
stiže
##FA
žal
pare
luksu
Glo
Tuđ
##misije
eksperi
sala
poha
Francuske
HA
satima
Copyright
Akade
međusobno
##vosti
Micro
desni
uboj
##ци
mama
supruga
##lis
fro
kore
gospoda
ubrza
##zer
sadrže
ovisno
bolnici
natječaja
##duše
usavr
##rtava
oružja
portalu
izboru
##riše
umiro
##gare
Nadam
kompone
Insta
Cijena
800
Loka
##dati
spozna
ispro
članovima
najnovije
šanse
##mbo
dogoditi
##vencija
##diju
putovanje
##vačke
neis
selo
Trenutno
zaro
ina
kakvu
##šavanju
kot
##žom
##orđe
kapaciteta
sinoć
smanjiti
##tacija
##stio
##fera
##đenog
Isti
##ngu
njena
##95
##dju
natjecanje
slučajno
Poslije
dugoro
meseci
interak
emi
modu
rezu
##činje
najsta
milijarde
novembra
izba
up
poziciju
cijelo
hri
Maksi
učestvu
važnosti
opora
najvažnije
privreme
##phi
izgublje
izdanja
Agencije
temperatura
uva
Tru
uoči
##rnije
##24
kulturne
##gura
Ange
##viji
izdvaja
uteme
##njski
načelnik
zadovolja
uhi
85
hrvatskoj
muškaraca
ulica
važnost
odgovarajući
Predstav
datote
svatko
moji
albuma
Međunarodni
##pić
##šila
Amerike
današnje
##jak
prvim
##stak
##GRE
Rad
Aleksan
prelazi
avio
Ime
##liju
udžbe
ozlije
##neti
Druga
Ivica
prikazi
rezultatima
županiji
putnika
talijan
##lep
ustav
Hor
ubrzo
##pao
##nel
vozilo
##cide
vino
prihoda
temi
stranih
##60
spon
Premije
##mar
vanjskih
Android
ministri
Svako
##čavanja
proći
sk
vojska
studente
##sca
oprema
uvjeta
duh
manifestacije
63
Sveto
omla
trebate
Kana
##genti
tole
skupštine
servis
##rodno
radna
dovolj
Klju
utr
češće
180
profesora
očekuju
ceste
##skr
Kne
uslove
dostojan
##jača
njezin
dolaska
##znih
homo
zaključio
usvaja
prijaviti
Mac
##rcija
##laciju
brojni
pohra
fol
najza
dragi
općina
##sila
leđa
##DNI
Mc
oblje
##во
##stia
port
roditelje
toplo
Slovenije
moderni
##gde
pravima
Oko
Prijed
sceni
korek
##sanje
onemogu
razgovoru
##ziran
odakle
##nior
onome
##dere
zasto
##stero
zivo
за
##ти
##use
Poda
dnevni
tota
decembra
zlou
uga
pome
Portal
ažu
desetlje
##lovanje
##nita
nago
mislite
osloba
vrt
govora
večeras
problemati
mogle
posjeta
Uvijek
tvor
sjeve
##desetih
vojnika
##ds
čisti
epizo
smisla
##pedija
##ZO
York
meso
##presi
žrtava
##rirati
sljedeći
##wood
##ćama
opština
VO
##onako
zame
##pozi
teroristi
mesa
činjenicu
lijek
publici
kapi
postojanja
rečima
određeni
OK
čuti
##ham
##logiji
nacionalnih
poraz
goste
vijeće
##dini
dodatak
uspjeha
razinu
lokacija
GRA
učenja
budi
turnira
##ĆE
predo
daj
simpa
##tus
pohva
Bibli
konferencija
pročitati
##ys
spomenu
##ndo
nastala
integri
pas
zadovoljni
testo
šalje
Znam
##cko
Poku
kralja
pisati
završila
rezervi
Projekt
srpskih
čitati
##đenjem
otvorenom
fabri
##bele
časopisa
podržava
Njemačka
kategorija
predstave
infrastrukture
proteklih
##bini
kemi
goriva
Britan
Agro
##renju
srcu
osla
##sliman
teritorija
bogo
jabu
##vost
faši
Mor
teške
rekor
emisije
##jević
plja
sezona
osigurava
izna
Ujedinje
vožnje
konkurent
##mato
Vodi
novinare
##не
predstava
smjeru
sufinan
hero
interneta
##cijsku
Mora
pitanjima
ugostitelj
poznate
odvoje
##ćete
Osijeku
zali
##sniji
sunča
##99
komuni
sastanka
Baš
dijagnosti
##teli
nekome
##lažem
drve
beograd
redak
aspe
##ČE
rijeke
Josipa
Pristupljeno
##šenjem
bh
ske
der
mislio
radila
studentima
pokazalo
pretvara
ubo
Dis
politici
trenutka
odgovorio
mal
luka
##značaj
gola
meč
kampanje
Zašti
kolega
Ministarstvu
pija
zakonu
zrakoplo
Konta
uvid
zakonoda
operacije
većini
budemo
##zmom
zamo
##naciona
##70
Šved
prepre
oka
akadem
##mjer
##canje
predviđa
##sigurno
zanema
definira
oži
redovno
Char
plus
##tana
Kona
duha
##alna
istoj
gradovima
##zet
njihovoj
prijem
##pne
neče
Evropske
##ĆA
##tici
regije
dužno
Struč
otkrio
otkriva
propu
moju
voća
kozme
Gale
navedene
stvarima
Pove
vojne
##čajan
Uži
komisija
umu
kolege
obrazovanju
##ljenog
sudjelovali
svome
##cen
loptu
##ria
##ide
roman
Subo
kralje
kandidat
##rur
ovakav
muzeja
CE
vodio
provesti
cijelom
questia
##tualne
hladno
Strate
nemate
sestre
preuzimanje
prire
kilograma
krva
uzrok
otpo
##ling
Posje
kafi
Srpska
imalo
vikenda
Aleksandra
##kuju
Edu
štete
OB
neugo
meseca
plju
površina
pobjeda
motora
izabran
šteta
pjesama
otvaranje
dijelova
##stavke
saopšti
##kara
##pisak
##dović
vrijeđa
ulazak
turističke
igrali
##slje
Americi
povećava
trenera
IT
##lly
međunarodnim
križa
plas
upravi
sestra
slične
sanja
pripremi
umo
pao
sektoru
##vanog
količina
naučiti
##cijskom
##RS
analiza
##sisti
sajtu
dobavlja
minera
pau
tehničke
usvoje
##vački
suve
deko
Izlo
Tran
podrazumije
Bosan
##stven
oduze
##alno
liječni
komercija
lagano
otprilike
##đimu
njenog
ispit
HNS
##ries
otoka
pojava
vjerova
dove
Geor
##one
PRA
vani
##dnike
izva
Zahvaljujući
dugi
završava
##df
studenoga
##zz
ruski
uvr
lokacije
Croatia
većinom
Božje
karijere
najmla
poklon
samostalno
rod
oružje
onom
napome
Fili
Konferen
vatre
##šanje
mrežu
rake
Ljubi
ženu
poboljšanje
iskreno
spomenuti
klubova
##ljke
dođu
čitao
odnosima
trajanja
Općina
oboga
podrška
diskri
Eto
##ćenih
##king
nemojte
##SKE
povjeren
##čeki
##roni
ostatak
##lene
##znog
napredak
kamo
tela
želju
otvorio
odbrane
priznanje
Izvje
ligi
##krije
Uprave
Zu
priori
Brani
Sredi
Zah
uža
Rim
potpredsjedni
dužnost
dozna
##metra
delega
##socija
##ŠE
borba
##ndić
##istinu
politička
legi
##sili
cena
učešće
liga
postigao
##đani
straha
demon
Vaša
sudjelovati
Pone
##vcima
odmo
##davno
komunici
84
ogleda
Univerziteta
predstaviti
agresi
##jama
misi
poznatih
##tović
Vrijeme
##ssa
suge
omogućili
Uvjeti
evide
##pima
##teljice
##zim
Tim
gubitak
uha
##tnju
dobrih
cjelokup
potpisi
tabli
##tari
sunce
Plenković
najo
##CO
##vicu
predstavio
##plici
opšti
medicine
ape
Jan
tki
razine
Phi
potiče
hrvatsko
službeno
hidro
##veno
turnir
##mil
Banjalu
rasprave
pripadnika
##nemo
##ffe
crnogor
Toma
##žnice
Vene
nastao
##lue
odgovora
najte
kolegi
stranaka
LA
televizi
##tiku
tla
Dodik
zaosta
udalje
##rit
dobiva
##nia
Kantona
##kraj
paket
SNS
rekrea
star
##porta
Barce
Pozna
Isusa
isplati
sukoba
pokret
vezano
fotografi
##liji
ikad
prihvatiti
skuplja
zadovolji
##ко
opis
sastoja
kancela
naslova
##šom
prose
umro
##rsa
koristeći
obavljanje
##ciety
scene
rizika
otvoriti
mogući
glasno
metode
najbli
stariji
1993
##NG
##renih
pozitivno
malom
Stari
TI
Njegova
kono
##tvo
140
vjerovati
kraljev
prolaz
podatak
prepoznati
saradnje
stanu
gostima
flo
sposobnost
povez
Teo
pohvali
zvo
neto
obuhvaća
metoda
sumnji
Novosti
obradu
dizajna
Rijeke
uspore
rezulti
muškarci
samopo
januara
Fonda
Francuskoj
##tskom
takvog
kolačićima
dokumenata
##ćanje
privred
##tetom
##njama
##rnost
plaćanje
##au
drže
##glu
boju
shvatiti
gospodin
Jedino
##rita
vojni
starih
analizu
izgubi
Mr
Posta
##alne
šećera
##čavaju
kratki
zakoni
sredini
univerzi
olimpi
posebice
proizvodima
Širo
Prilikom
uspjela
ulicama
Vale
##vanđe
riba
##doslovno
mono
otpa
unaprijed
izradi
započeo
tona
motivi
##tenti
propusti
karijeru
favori
prikazuje
učinio
pošta
Marka
pročitajte
kamen
čuva
Apple
arheo
Robert
točke
izvi
Potrebno
istine
##bin
Microso
data
rezerva
diploma
angaži
##fan
opštini
##ć
objasnio
posmatra
iskaza
otpor
gradske
donose
zločine
##tički
nemi
Najbolji
##kluzi
##diplom
nekretnine
značaja
dostavlja
##jku
poginu
astro
Twi
recep
turizam
hrišća
61
sastoj
ponaj
novinarima
američkog
Eu
prezime
davno
zauzima
Air
Večer
##stracija
limu
##rie
vozača
Najveći
glavne
##28
dobrim
Pročita
svijesti
ambi
stvarala
izjedna
spek
ite
aler
Gradskog
pozicije
Festival
zatvor
##vy
aktual
SDA
##vska
zgo
Udruženja
Naslov
##fon
polufina
##skoh
radika
Ah
saznati
živ
puni
promene
žalost
okon
posebnu
##vjela
##caja
nizu
benzi
##vođenje
inostran
znanstveno
Lin
##šice
##rskih
otpad
nat
Organiza
publike
Geo
prošli
Brod
učinak
slavi
sila
ekonomije
etni
700
nogu
dogovor
kakvo
virusa
Antu
teritoriji
##ли
pokušaj
čuo
predško
niže
##miru
##vrati
mnogobro
##CU
Windows
skija
otku
inde
komentarima
mišljenju
shvaća
ličnosti
jesti
ostaju
Italije
održao
Javni
pretpla
Mana
organizaciju
navedeno
##kciji
osoblje
mandata
živimo
nezadovolj
GODI
domina
izgradnji
Vojvodine
##ČA
ionako
Han
Mario
podru
pojam
##LJA
jak
##grani
visokog
nauka
tačno
aerod
ZAGRE
jednostavan
božić
Popis
DVD
##mović
##led
savlada
##kana
##gram
međusob
njezina
predstavnik
##rstva
ambije
bicikli
obaveze
Para
osve
nadmor
Jednostavno
##caju
Znači
##šene
##grija
nebe
Otvore
požara
visine
park
količinu
izgle
Franjo
nere
##lažu
religi
Wal
slučaja
##miji
##činu
oglasa
##biju
##žnoj
Ovim
vjerovatno
pole
Brazi
izu
##pisko
djelu
Objavljeno
ekonomski
osjet
transpa
nedelje
podnosi
Njemačke
Kraguje
Nis
Učenici
cipe
##djeti
međunarodnih
upotrebe
##ŽI
##RT
zvanje
##LJ
Država
svjesni
pop
Pje
ref
Europskog
proizvodnja
uzra
Sadu
##des
##kan
##njoš
##tit
prebaci
najboljim
općenito
##74
izdanju
redom
postavke
nadu
manifestacija
ministarstva
održano
##duju
Knjiga
državama
sudionika
##the
##tero
partije
odredi
##teru
ušao
miri
svojevr
kretanja
uspored
zače
##cite
takoz
##VJE
Đo
Kuća
Povje
JU
Zabra
sobi
fondova
informaciju
potvrđuje
predstavnicima
funkcija
najja
razumje
predsjednica
stigla
##zac
međunarodni
##ljite
##lum
većim
mane
počelo
energi
##pina
##selje
komada
ciljeva
bil
Ljublja
jutar
poteško
Istina
Predsjedništva
reprezentacija
sjednice
ikak
konzerva
izvodi
##ning
regionu
utjecaja
pande
##rim
##lera
Cla
Informacije
prezenti
##ženog
##mula
##ćan
##znom
##sada
stručne
čudo
ljudske
nazna
prekida
malu
osnova
pacijenata
ministara
nekretnina
##vskog
PM
pošti
##mno
čvrsto
znala
formira
htjeli
tvari
##njivati
##ŽE
Kina
Europska
bore
Sud
stadi
ulozi
vikend
kontine
usu
Peter
rođenja
pres
Culture
tiska
dža
provode
prijenos
moto
rura
lijepi
Opa
##mine
beba
Vol
##tskim
dojam
##nus
rezultatom
srednjih
har
##njske
RI
debe
zdravstvo
umjetnost
američkih
lati
sagla
Savez
##žja
Njegov
isproba
stručnih
dugotra
Gran
pravilima
poslao
##kvali
krv
pišu
djelatnost
##mpo
sloboda
generacija
##kl
budem
##zozem
##potre
prihvata
miru
strije
##blo
##crp
Jur
##75
priku
prekri
##vent
motiva
trča
ureda
navedenih
##tions
izmjene
tisuće
vježbe
##spla
Žene
okruženju
trebamo
skro
##har
čaro
jesen
##šima
##uu
Kali
pružiti
austri
##GU
situacijama
odabrati
nena
Rezultati
stvaranja
##dijinoj
glavom
propisima
##bere
mreži
nasilje
obrazlo
##SL
RO
ukazuje
##redne
##ŠI
novosti
out
ekonomske
zastupa
kriza
neprijatelj
instali
emisija
prošao
##cer
sredstvo
promica
##gera
cijela
izravno
bivšeg
pješa
##zbi
prebi
sor
miris
čoveka
krenuli
##dara
želio
nećete
mladima
Zadra
zasigurno
ostavio
Rena
##đivanju
leža
akciji
štampa
ekonomi
##donače
primjene
ponuditi
koži
naprijed
Mili
objavljuje
baštine
##cise
Sljede
gledao
##žnica
odba
nape
##vanjima
Pripre
Problem
rezolu
spolj
66
##mane
Flo
68
##povije
određeno
##viće
dalmati
musliman
smiju
##vis
cesti
Preda
opremu
Jel
##mb
uređenje
proveo
Države
##nela
Oli
##mara
Hajduk
leži
svakoga
##koviti
stilu
Dugo
ban
##ĆI
sana
potpis
očiju
neophodno
Mile
##tijeva
muškarac
##veden
Jovanović
nuklear
povećati
prirodnih
engleskom
let
lokalnim
političari
dostupna
##skop
stol
idem
šampi
ući
svedo
prilog
Anđe
##loškim
Fakultetu
takmičenja
električne
rođendan
pripadnici
Umjesto
nekak
##rajući
Wer
##ffi
federa
Dije
prikup
laboratori
pravilno
odbo
##klapa
ada
Marković
smatram
alu
uzgo
izmije
istih
korupcije
itekako
##nikom
nadbis
savjet
malog
##ricu
zavod
duša
##ercegova
foruma
##janović
mole
Qu
PS
nevi
potpore
pilo
##ziv
policaj
dobrom
hotelu
ubla
progno
Zri
##nijim
##roviti
##đenom
hrvatsku
Zvez
Real
dokument
struje
Splita
svjetske
##pite
Velikoj
##book
osumnji
proizvodnji
zaboraviti
Zakonom
rukom
Duna
identitet
plasi
našli
##as
Drugog
##ка
##gent
pokušao
Concise
##ŽA
##rskom
Neke
##HA
Franje
rano
tehnika
izjava
Deta
ugleda
##nijela
Članak
Pravilnika
korije
pisme
trening
Cor
##40
##vljanje
##tivnost
težak
Egi
značajan
sunca
većine
nemoj
##cent
general
neposredno
prilo
##nijom
##čenog
prim
želji
slažete
procije
istaknuti
tužila
sportske
ljep
##mah
krenuo
zvuk
završiti
bespo
pokušati
Zemlji
Život
nedostaje
aran
Glas
persona
pisao
sistemu
temama
diplom
ploča
enti
SF
čovjeku
cita
radnom
Trum
mosta
deli
##tilo
bur
Tamo
štra
političkog
stvoriti
kog
svojem
##dž
raspisa
kapitala
dani
Faceboo
radnje
nebo
krenuti
dodatnih
meri
##nuto
čekaju
sadržaje
sjever
budžeta
prirodne
Nisu
gluma
CD
razoča
završetka
konkurenciji
elemenata
rešenje
crte
psa
spomen
zglo
##ви
you
ravnopra
##znim
bakte
Atlas
čitav
osvojili
##kol
86
opra
##lnica
##trag
stakle
SO
##ljava
##ky
okupa
Student
Djeca
ner
jedin
Viki
pravde
David
umesto
##ljuju
##ference
smisao
mudro
reakcije
odjednom
Parla
Srbima
najprije
demokrati
progo
Jelena
određenih
mojoj
služe
Hercegovina
prirodno
mirno
danom
##con
ubaci
##tovanje
koncep
odgovore
stavite
mase
svezi
Bogo
##jnom
radost
Održa
##ficira
kaznu
brine
uč
Zdra
pozdrav
mađa
klo
Meksiku
Inte
najbolju
računala
buduće
##ktora
uslovi
##MENA
##nic
mržnje
zaljublje
##njeva
67
romanti
objavljeni
objavljena
inicijativu
ratne
Naslo
idemo
City
slici
kle
nosa
opcije
ekono
zgradi
ane
##uzda
ustano
krugu
interese
Internati
##nimo
Elektro
proljeće
februara
##brary
##liš
napušta
maksimalno
nikoga
rešenja
##žimo
komentari
traga
fizički
kombinacija
odgojnih
Posla
nastavnika
pdf
Wikimedijinoj
uputio
##nički
obez
72
valu
sindikata
##tvor
orke
muzej
Komu
shva
iš
ZAGREB
telo
HI
##štenju
##čicu
popisu
njegu
položaja
dobrog
cijeloj
odras
naoruža
kne
##pularni
AP
##NK
partnerima
Izrael
Stefa
izvješta
##ди
##loškom
točka
Priča
jelo
tad
zahtijeva
##seksu
kartice
Ništa
proraču
Dubra
novinari
uključuju
##ženim
predlaže
obveze
prometu
##ine
1994
dokazi
sedi
radnim
cak
iPhone
nalog
Mjese
Kristi
##biji
kupio
forumu
uro
masli
uistinu
govorimo
dionica
##gaja
Sil
milijun
Društvo
##13
stola
odredbe
Svo
posjet
prilagođa
jez
inspira
##shing
tradicionalno
nafte
jugoisto
##dile
kami
Policija
##pana
stvarnosti
umije
##rika
nedostatak
tijeku
dužni
ekipu
##nit
##ljenu
tehnike
volonte
gar
očekivanja
Švica
svjetskih
NO
##lizo
Razvo
europske
glavnih
izvijesti
potrošača
igrama
pozornost
uzi
važe
vještine
zavisi
pića
##komu
##KS
Kaza
dušu
unaprije
nadležnosti
higije
##feri
sile
finalu
audio
postavio
političkim
##leksi
izosta
paro
govorim
##dena
zahteva
##rstvo
##širnije
##12
##njenih
Želim
srpskom
potrebni
dekla
islam
##STO
zdravstva
praktično
umetnosti
prihvat
este
izgubili
##novac
troškovi
Londonu
##sine
##stvari
Moder
new
##45
glazbu
##leo
zadovoljan
oslobađa
BBC
Ben
Igor
vozač
tražio
dječje
članaka
imenu
Ed
sportski
##nirati
bolju
razdoblja
је
Sho
puna
liječnika
##formisa
inteligen
##kin
##mona
eta
biznis
pružaju
francuski
most
roka
prethodne
Sjever
učio
##tropo
zid
##NJA
nepotre
državnom
Bit
otvaranja
##cijsko
avgusta
sajt
prirodni
Fin
osobni
kralj
##rij
blaga
##365
Indi
Jeste
urednik
studiju
Teme
kombinaciji
sadržaji
Krista
Osje
seo
bošnja
##alni
Ple
Zanimljivo
teška
djeluju
mozga
reha
Kopri
prepoznat
##snite
kompju
treninga
##OVIĆ
povrije
utjecati
American
psihi
dokumentacije
crkvu
uloge
Sloveniji
japa
papa
##vljenih
pokro
prodaji
Godi
Često
utječe
njenom
sprje
##njskog
druženje
##šina
pravni
strp
peri
HE
predstoje
##mit
crije
najka
Branko
##čarima
Odbora
prodaja
tradicije
mag
##med
##ida
##bica
manja
gledaju
nevla
pitam
vidjela
laži
promjenu
Naše
gluposti
popodne
detalja
cesto
TA
Medici
##77
trbu
napro
Unite
##ranjem
cirku
raza
službenika
nigdje
Af
seksual
obali
##ја
mozak
posjetitelja
##stičke
SVI
##nse
najznačaj
78
mlijeko
staze
##VNI
##danja
slova
umetni
Vukovara
nacionalnog
##rodnoj
mlađe
##lf
glasnik
glava
Neza
napravila
nadokna
farma
epidemio
grob
prijatelje
gostu
69
provi
zavoda
Papa
##OVE
Zavoda
incide
##lse
vrijedno
izjavila
##goda
ograničenja
##NOG
izri
zre
Međimu
vlastiti
Gleda
ome
druk
stručno
matematičkih
zrak
komunikacija
##ručak
##bile
karaktera
odobra
##cuje
set
Modern
uko
Red
interpre
stigli
Francuska
zadržava
nacija
kreve
##urse
koža
spu
pretpostavlja
Predsednik
##int
sudjeluje
otoku
diskrimina
optima
mlijeka
raspravu
##lijanski
zakaza
##don
dostupni
zastupnika
73
##yo
uništa
oboje
danu
imi
opušta
nasle
vredno
brata
alkohola
provedbu
Ama
desilo
##Na
kap
##faši
vrtića
mogućnostima
upute
pojedine
pasti
najave
ben
Boris
stvaraju
Tor
trend
uređenja
Znan
oglasi
cigare
mere
Srpski
##cne
rasprava
kazna
zare
jutros
Slova
njeno
##dovanje
biogra
struktura
htjela
stotine
##mus
76
cca
Politika
plate
izla
ate
ara
udara
objasniti
skrom
porije
radite
krije
suprotno
svejedno
policiji
devede
posebna
As
##berg
drugačiji
slave
zdravstvenih
Petrović
Domovinskog
##ljni
kongre
tipi
##tirati
zapisa
dijelove
službu
Stre
simbol
##nimi
uzeo
Damir
dubro
Herceg
##jor
dobiju
bića
povremeno
njemački
umirovlje
najkasnije
##vata
Zapad
krema
##rec
nesreće
odlaska
mirovi
misliš
Prijedlog
sklapa
##lia
##diš
inozemstvu
##rinu
grupu
nastavio
pripra
Važno
računar
email
trgovina
Šo
##njenja
ciljeve
pregovara
prođe
Čako
##ong
sledeće
karijeri
izlaz
čin
kulturi
pokaže
članstvo
objavljeno
nauke
Online
lijekova
koncept
svemir
potencijal
trage
straho
biljke
aktue
boda
prizem
##stog
proma
Nju
Turske
Ala
mijenjati
Jesenje
reprodu
gospodarstvo
sajam
kulturnog
navečer
##lovanja
posjetio
legenda
peti
novinama
prehrambe
##vito
mjesečno
##rn
naji
važne
Saveza
firma
Nasta
marketin
##55
##jiti
korpora
Mala
##torije
Var
odredbama
pojavio
poste
PC
##hno
Profe
pripadaju
##tsku
umjetnika
izrazito
##sloven
toleran
sportskih
Sma
pripremu
kal
Ekonom
društveno
određenim
perioda
najboljeg
uđe
Službeni
takvom
vjeruju
donijela
energija
eviden
##und
##kija
mlada
identiteta
odgovarajuće
mojim
medju
uredi
Hoće
mjesecu
pažnje
potrazi
kuhinje
egzi
odgovoriti
okolnostima
razmišljanja
primio
izraz
topi
zbu
poslovnog
nacionalni
oštećenja
brak
##nciklo
obnovu
Sloven
moraš
uhap
Olimpi
##sic
strategije
visokim
dvoj
Dubrovniku
Marina
investicije
pse
##vita
##strem
državnim
Demokra
djetinj
prisutni
Vra
Balkanu
osvoje
1941
poraza
financija
ceo
Aj
izjavu
rock
74
političara
rehabili
Sy
pojedinaca
##jenja
##ranom
potpisao
narednih
prepa
govorili
masti
1945
sjednica
peto
naknadu
pokrenuti
Uči
##deri
tajne
držati
nimalo
##NJE
Dio
lijepa
ultra
STA
##ralo
poslovima
standarda
financijske
festivalu
servisa
kul
pate
##nošću
jezera
rubri
nabave
Slije
stanova
korišćenje
doktora
prostorije
Luci
Povra
##nito
##gove
##logom
##it
##šnoj
##TV
##cho
978
IC
98
ulaska
ovje
ribo
##gradnja
Oto
Europa
International
##stili
sakri
liječenja
DU
Premijer
pokušavaju
razgovarati
Želje
snije
investicija
nikakav
odlična
zanimljiv
Male
zago
nijedan
##loško
terena
namet
financira
##renu
Sporazu
izaći
porodici
Hrvatsko
Roma
započela
sretan
##lnici
predviđeno
doprinosi
utro
namijenjen
Jadra
##ii
posljednja
bombar
sobu
naknada
tvoja
ukupne
##šavati
Jovan
nepravi
povjerenje
određuje
čudno
seks
Rje
Pogo
kredit
komi
##FI
pojavi
Bože
biskup
##jko
##ther
Ćo
stručnja
djevojke
finale
potez
pogledom
reforme
izgradnja
Ras
##ping
Sazna
##mjese
nastoji
zapošljavanja
spremna
troje
Fact
Ponu
plesa
##nijeli
IP
termina
##base
##naest
##fere
parale
obračuna
Pal
Društva
moguća
venti
spaja
Portu
obilježava
Madri
neuro
trajati
##tpu
kade
zbri
igno
Gri
termin
##žnost
podignu
zasno
##rsko
Uvje
željeli
gledam
poslednjih
110
predsjeda
cene
Svje
greške
vrho
##metri
izrazio
Sigurno
obožava
fizičke
međunarodnog
stati
trenuta
Natje
##lga
Home
dostaviti
društava
simpati
starog
reguli
pojedinim
čuli
tranzi
zapis
Nikolić
sektor
hipo
##kne
EP
Nagra
okup
priči
Poru
posjetiti
##blu
industrija
modeli
zaslo
Sindi
intelektual
glumac
zahtije
Open
profil
vlasnici
##rizo
shvatio
Gradske
vašoj
##cku
zaku
nepresta
publiku
Ger
##reo
##tivom
##govori
izaziva
angaž
Parizu
91
preba
mojih
štet
##stite
##vedena
stadio
brzine
OT
Povodom
sjećanja
##žih
Fakulteta
javna
pojavljuje
Glu
##zbo
položaju
događaju
zaroblje
aposto
srednjoš
##lie
Molim
imale
62
nadmorskoj
podrazumijeva
Odli
kupovinu
Najbolje
vinogra
Mini
Miroslav
rođena
Ele
Neo
igrače
površini
započinje
socijalnu
usred
primjenu
##dbu
kanala
odjela
karakter
praksa
Fon
krivo
lep
##govornik
Tehni
##gru
spi
Konce
##lca
ratnih
titulu
ruci
odabir
Gradonače
ber
Stro
presti
Teško
nade
Nastavkom
restoran
Čovjek
Đorđe
ota
##tis
##hrani
##povima
##tivnosti
NAJ
##jA
##štvom
##MU
##stim
##mca
kvalitetno
stava
ispitanika
iduće
dodajte
##ntnih
Art
krajnje
71
gov
##čane
odluci
##llo
ljest
izdrža
mladim
Milanović
odvjetni
Izvr
##tonu
naglašava
prevo
inicijativa
redi
molitve
ravnote
##njava
jugu
civilne
88
##ljica
Sch
prirodoslovno
##ograf
otok
naje
javljaju
slobodan
Nikole
većih
ostvarili
Korisni
spriječiti
osnovna
Klik
##NOSTI
Sna
ekspe
ostvario
##98
recept
bebe
##lce
zone
njezine
nikome
kosa
brzinu
neuspje
videti
##wth
konfi
matematike
vitamina
Kini
Komisija
postalo
nosio
ela
##ction
Ab
##braries
susretu
privremeno
djetetu
odgoja
firmi
##vida
Pozdrav
zajedničke
njenim
osnovni
HO
##LJI
##čanstva
vaših
mješta
93
turista
trgu
neve
Martin
saveznoj
njime
balka
trudnoće
Pokre
medicinske
aranž
dale
raznovr
klase
##sis
##cione
vaspita
sugra
prozor
pasa
Maja
živelo
##92
miši
disa
odmora
crne
pristi
imat
skrbi
odbaci
NAPO
pravilu
##LAN
inspi
Pau
okvir
##njavanje
ml
crna
Park
baviti
zadržati
##rki
potvrdu
Bespla
pravcu
pratite
katastrofa
upozora
##yle
zloupotre
grana
partiza
uvođenje
prika
dijeli
svjetla
smještaja
srednjo
implementa
obavljaju
zahtjeve
##liga
simboli
ozlje
španjo
dodjelu
orijenta
kur
Net
BM
naki
##fikacije
we
papira
strukture
prijedloge
Statu
##jicu
Prati
poziciji
posjeduje
Tekst
angažo
sudjeluju
pune
trajanju
softver
vlasništvo
##kani
aviona
monta
Opera
tjedana
Pitanje
##vitelj
Zaklju
lijep
Ovako
najdra
pozitivne
hahaha
##tch
Izet
nebu
##ćni
##vko
izraža
sagra
glavnom
spomenika
##ćev
niza
zadar
udob
izazov
Podije
DRU
mandat
kupao
##vrata
certifika
FA
Prijava
##GE
petna
Filip
pisac
##cati
##burg
Prosto
##risati
neutra
napisati
inicijative
pojasni
navijača
prlja
##tum
uzne
oci
Finan
Mogućnost
pohađa
##ŠA
povrća
odgovoran
Đur
proceni
Sadrža
četvrt
kato
##tiranje
blagdan
zabave
horo
težine
paketa
##cri
komentirati
##nge
muškarca
sveto
provjeriti
Postavke
trgovini
77
Čini
##zmi
Marije
održavaju
##gradnje
raj
PE
polj
##logy
dostupne
manjina
fotografiju
Marin
##čenim
##wor
trenira
prošlost
tretman
Ljubav
menadž
industriji
partija
okoliš
##zivanja
Instituta
podo
otkriti
##cionalno
izvoz
trajno
robu
političku
##ms
odlukom
previ
zadru
Trg
izle
otkaza
gradnje
Upravnog
##gda
cari
dimenzija
zbor
Poštovani
pažljivo
celo
trenin
Portuga
DS
Moje
##Tu
krene
bezbednosti
ći
trećem
Laza
##godišnjem
romana
##zić
zaka
##nau
nivoa
tragi
nadzora
##ljenom
registro
Sama
Krapi
Koje
prste
stavio
visok
planina
Vaši
##minje
pisma
kakvi
presude
počinju
teret
Cent
samoj
hit
Stjepan
brodo
nezako
tv
anđe
nastavu
Konferencija
Katoli
Dobrodošli
Meyer
##90
Mnogo
sigurna
##OVID
Uskr
Sveučilište
fond
stoljeću
istoriji
##rsku
napisala
lično
zagrija
čuje
ко
četvero
opskr
srpska
##rević
rezer
recen
izrada
kupovine
rasko
sate
komore
stavi
svježe
Microsoft
##čanstvo
žan
ručak
130
skra
usme
koronavirusa
ilega
##94
stože
nastaje
natjecanju
solidar
Tuzla
Werner
CR
reakcija
prethodnih
doti
proče
Hristo
čas
Putin
Plan
korisnički
##sho
zamr
kop
##lor
Lige
banaka
##zro
96
##tarija
restorana
Mladen
##ldi
##vačka
faza
vlastitu
Podsje
libera
izgubila
1810
tražili
rijetki
nacin
provedbe
Power
zvijezde
Sme
##ngs
raspored
pozitivan
Uglavnom
emisiji
najdu
Viroviti
kupaca
lin
mara
##žilo
Statisti
##tuju
dijelovima
##begović
dostave
zapre
##ken
životom
tajna
##leme
Pravilnik
veteri
dijabe
Pedago
Stru
funkcionalnost
Zele
zlostavlja
Ivani
Članovi
atrak
SK
##lda
Agroko
##dre
Ul
podrazume
library
nera
dijalog
selja
War
stranci
proro
kasni
patrijar
objaviti
krenula
kulturnih
izmjenama
pušta
cijelosti
##ep
Socija
ribe
glazba
##vljaju
Odgovor
saobraćaj
dar
autenti
Jutar
Pet
##tualni
Blaže
izbri
##ward
čista
##njić
Klub
Fra
učinili
Pravosla
##tsko
Gradi
##lonter
osnovana
Vinko
naslovom
##zaciji
sudjelova
odraslih
želiš
MM
gastro
##djeli
zavje
nadi
dokumentaciju
##čeva
ženi
policaja
Plo
uvjer
šume
##sena
osmis
transparent
režima
Domu
ovakvim
obilježavanja
preporučuje
##kultu
Adri
##bac
Smi
AM
stotina
organizacijama
Naselje
likvi
boriti
programima
trećeg
##BS
pritiska
krajeva
##čilo
puko
##bnih
##RIJE
nasu
očigledno
tea
Sabor
uvoz
finala
upozorava
ZNA
razd
##cas
drvo
statusa
naviga
prikupljanje
standard
##soban
##renim
LO
Brije
Povjeren
Bili
##ony
bran
sredinom
Green
Top
ustro
zovu
bezo
##izo
##doča
podzem
##cni
ph
##remo
COVID
turne
putni
maila
ispada
##udi
divi
stupanj
funkciji
ulaze
ekstra
Mlado
LG
##ring
##šaka
##CIJE
RU
dopusti
Prve
zona
treća
##jao
##kića
Podaci
Dvo
##ljubi
dozvolu
uci
prenose
unutrašnjo
pregledniku
Milana
našla
##reti
tehnologiju
pivo
France
Der
##lističke
kritike
postroj
##cna
uba
##ljenju
##FE
jače
izložbi
histori
metra
##nijem
Im
cijenama
stije
growth
zida
snimanje
Programa
##pov
ubio
nevjeroja
Unatoč
eventualno
desno
ministarstvo
##xel
izgledaju
stvaranju
realizaciju
devedese
##dbi
Kupa
##js
pružanja
Staro
Nata
žesto
visokom
odrediti
obale
ekstrem
gledate
tudi
sindika
realno
odgovorni
preporuke
željezni
budete
Mur
povećanja
ugodno
voće
Pat
dvojica
postojanje
Slažem
manipu
Budi
ruskog
šum
ese
Norve
odlučiti
##cam
znanost
##ranog
Ener
izgubiti
##vce
vrha
osposoblja
Nekoliko
pokazi
Ispo
use
prijevoza
realizira
Srbe
##sha
Siriji
gost
##ming
organizam
šećer
svečano
doslovno
snijeg
otu
rim
jednostavna
Far
kuku
živote
faze
aj
nogama
Karad
##ANJA
##čkoga
##ranim
zajednicu
uraditi
bend
poho
##pp
Ok
savjeta
adresi
Izložba
enciklo
##canja
pronašli
slobodna
Komisije
voditelja
##ljani
##nute
uslova
Veli
##HO
##ljivih
##roda
Rodi
##šana
mozes
slatki
##sce
##im
postavljanje
##slan
##xican
wiki
Čita
vodstvo
ruske
suprot
europskom
Njegovo
avion
stigne
vladaju
Nacionalni
Vasi
šmi
paki
upri
obratiti
##zili
glumi
Popović
modi
Preko
očuvanje
##gora
godišnjeg
nazvao
##lnikom
lokalni
nastava
##NOM
##zen
suradnja
snazi
brzina
BU
zauvijek
##stila
osnovnim
ekskluzi
pitao
kreću
većeg
afi
ostvaruje
načelnika
Todo
Argenti
Unije
##tnicu
uk
Potom
Balkana
zvuči
njenih
ljudskog
adrese
Imate
dnevnog
3D
činiti
##đujemo
univerza
Vuk
postojeće
povratka
predra
čitanje
##bn
Karlova
kasno
glumica
istraživanju
donošenja
opisuje
##ničke
##nej
##rnosti
ljudski
rezi
Odmah
središtu
Koja
##dniji
##bel
Ilija
poslovnim
međunarodnom
Svjetskog
lijepe
##mba
Izvor
del
##džbi
##tiji
svijest
##CD
standardima
Nemojte
NAPOMENA
radija
##vnicu
##sion
mišića
Bjelova
visoka
##vnije
##losr
Av
Zemlje
##bolje
objašnjenja
##teran
amand
opciju
Jase
gara
92
##rijski
baza
odigrao
objavili
##bornik
Dž
ravnatelj
engleskog
##ntara
velepo
skrb
##sma
sjede
Varaždin
Mihaj
realizo
plaže
##те
zvje
preno
##duće
vođa
Zapravo
istrage
objekt
##vanim
vesti
Austrija
Uosta
##daju
Dona
##čja
##all
izmjena
njenu
Frank
Forum
plovi
književnost
privatne
dijagno
vratima
##šica
ratni
Udruženje
##šković
verziju
pali
Vrho
Poša
Slobodan
##đenu
donošenje
##nisa
krevet
šansu
namirnica
160
##siji
izrael
kupnju
znanstvenih
hitno
rit
##crt
odlučuje
kompozi
masno
pravna
izlaga
besplatan
##43
poslovanju
razina
Napra
##ženom
##cia
zapri
informisa
misao
prijavi
##sche
broda
sudjelovao
vidiš
sličan
ojača
Uostalom
pregovora
jedinstven
imuni
lete
Međunarodnog
dominira
čl
mnom
vezana
prole
Prona
Otkri
otpu
##metni
Reci
pogodi
Luke
##lde
##resa
guž
padne
nazivaju
##lone
povrede
autoce
##znost
posjete
bren
Petri
visoki
ugled
hrva
komunikaciju
jačanje
koristili
djelatnika
površinu
jači
Specija
stvarnost
samih
lider
ustanovama
##broj
filmove
papir
odlaze
iznajm
##tekto
Institut
stvorio
##njivanje
##brani
starijih
djevojka
zamjenik
Regiona
Davor
kandidati
navedenog
izvršiti
moni
Ponekad
sretni
Vukovaru
transak
##nki
ljudsko
podnijeti
KAKO
Patri
##čom
kino
Američki
##njenica
vrhunski
##gena
pisanje
##nića
##pka
antifaši
Nalazi
Gala
crni
golova
odgovorno
Pono
Vijeće
##vanu
zatvoru
Radni
##dao
zemljište
stalo
zdravo
smatrati
##jk
komad
Karlov
Crkvi
vodstvom
zlato
pomenu
##njati
narodne
Gospi
tice
##giji
celu
83
iznosa
višestru
zdravstvenog
sajta
civilnog
Ukupno
##govima
krista
Hy
starosti
potru
pristajete
otišli
Jugo
Slovenija
ispitivanja
##naka
podijeliti
tradiciju
završetku
##tete
##đo
Zakonu
poj
deci
##tskoj
Opis
stanovništvo
##lea
automat
kota
braka
GA
navedeni
vratili
##bus
skupini
saraje
Biha
istorije
rješavanje
potrošnje
kontrola
##padu
partneri
Pale
razgovarali
međunarodna
Samsu
dostav
čude
kolegama
dijelovi
Reference
najvje
kuka
poštovanje
Washing
kalo
zaposlenika
uskr
Brise
obnove
Lan
Cam
Nitko
elega
ažuri
Kristo
hard
plaćaju
navrata
depre
izgledati
Nacional
utvrditi
suzbija
Ore
piće
kavu
##zove
volju
##NIH
preporuka
odije
1984
Tito
promjenama
struko
milion
pso
##lita
najpopularni
pokva
tjelesne
narednom
samu
ustanovi
uzbud
##žnosti
udarac
##fiji
podjela
Pretho
proizvođači
##ndu
Hrvatima
žao
mari
petka
šar
cla
financijski
značenje
spomenik
##leksibi
vještina
volio
Srpskoj
mai
dogodila
potje
alata
##snicima
odsu
bubre
ostavku
prvak
luke
radilo
##cita
saz
pojaviti
Draga
konf
##jn
##garske
PDF
trka
asfal
Vidi
Tema
lokalnoj
imovinu
##rijera
Sjedinjene
ugle
naredne
evolu
ovakvih
mater
uticaj
pogodio
televizije
Blo
doveo
Turska
slavlje
diplomi
anonim
Svijet
Bugar
rađa
##panj
zaštićena
##šine
##NAL
##grafije
mle
stepeni
zuba
vlastitim
moderne
##MP
Nogo
započeti
Obitelj
##čo
Kita
premda
##cial
Otvara
pravilo
Otac
provin
##vremena
zvuka
upotrije
##koj
##ljivim
upotrebi
Apo
predlog
##cionog
Darko
SMS
ubu
dopušta
##lskoj
Hil
TU
napadu
koman
okri
sajmu
##dela
unija
normalan
vijeka
naslije
plaža
##cijskoj
Rok
Osnovna
mjerama
domaćina
##cor
organizuje
daljnje
obranu
kartica
misija
advo
Spi
##27
##lošku
izdaje
Znate
gume
karakteristike
Istovremeno
atmosferu
kiša
sekretar
ispravno
##vačkog
znanstveni
žrtvama
pogor
bolesnika
postavljena
mnoštvo
vri
pobri
Java
osvojiti
##hen
socio
##18
izađe
aro
obavije
##ćenog
maraka
##scu
Smje
izjavi
izdavanje
Lov
nazad
sportu
određena
zadataka
Svjetski
##rskim
##elek
pomogli
tjedno
odobri
##stić
punom
Kašte
namjera
prosve
osjećaju
nerije
##stički
Vjerujem
proizvođač
tehnički
##cao
Nikad
savršen
##ninu
Provje
socijalni
državnoj
tobom
##dovanja
osmo
priključi
##ficije
bolnicu
vrijedan
izašao
Glaz
##ograni
događaje
##stveni
vrednost
temeljem
##nutra
prošla
Dobri
##šala
##groman
pokušaja
sapu
dramati
tekstova
Prince
##mrt
sramota
Kolačiće
razvi
##šci
faktor
Stran
zdravstveno
sir
Valenti
##šali
sukob
HP
izložbu
izvanred
stimu
operacija
MU
Usko
imas
kartu
izvještaj
startu
gradskog
##isak
dobrovolj
proz
94
svakim
fenomena
pripremiti
trebale
prirodu
##nesite
dizajner
depo
Bosnu
spusti
ploče
dizajnira
##mber
televiziji
pravnih
prebivali
##nule
podrije
utrke
Administra
Puno
upit
##tlja
pokretanje
HNK
##ranj
Mostara
odrasle
virtu
svjetskom
minutu
išao
##ста
##ničkog
Don
##VU
slje
anima
Opet
planove
kamena
Nik
vlastitog
##metar
##bula
brigu
narudžbe
Studi
##formu
bogata
##ljku
kretanje
ukupnog
granici
nedjelje
##nc
dolje
Zabranjeno
dovoljan
struke
uniji
Em
##sme
vrsti
Puli
srbi
pato
koraka
Vreme
Osnovne
ovlasti
ube
Hel
Gradu
dulji
učitelja
turniru
pojedinca
uspješ
jeseni
##vel
##sar
##fra
širenje
obaviti
katedra
informati
##rici
konkretno
špi
kampanju
Primor
Kraljev
Poslovni
oruža
prirodnim
oduzima
hodoča
postigli
roba
##scima
predstavljen
frek
broji
nedelju
otvoreni
fru
ohra
Najviše
bijele
sudija
pranje
Izme
luk
vodeći
vrtić
Želite
##cep
##ane
pozivaju
koncerta
grama
totalno
poboljšati
ŽI
izvanre
verzije
strong
zajedničkog
##tional
##čiji
socijalno
osmije
bal
mesec
##ZU
##štenih
nikakvih
veci
Direktor
otkrili
izazi
karta
teškim
##tovao
političkom
##žina
Poziv
viši
sliko
muče
korišćenja
##povje
folklo
uključiti
zaključak
Sal
Kluba
okonča
fer
##DRA
prolaze
900
voka
Četvr
Philip
kupcima
gubitka
sličnih
izvješće
doho
##vskoj
##bnog
reke
principu
bojama
##bova
samopouzda
radnike
raski
##up
sastava
tereta
odvoji
kampanja
strogo
čaj
United
##čeve
rasporedu
javnu
art
Bošnja
prouzro
svetog
Sudje
pravosuđa
dozvoljeno
Dubrovnika
primjera
hvali
prikazan
Ac
završili
zasni
odgoj
visokih
350
uvod
##ljivanje
glazbene
Općinskog
smet
predstavljanje
otišla
skanda
javnošću
dim
svečanosti
poznaje
predaje
##TER
dionice
južno
koristio
sreća
kuhinja
##pl
jasan
database
igračima
nesreća
pojavila
harmo
osuđen
plasman
zlata
sljedećih
##čju
staza
Fakultet
kamere
##aru
##živo
kontrolirati
Moram
##pisuju
##ndro
##čevića
Nizozem
Vesna
##ćeve
Dali
poduzetništva
gradovi
##ве
Spre
fotograf
sastavni
snažno
Tuzlan
populacije
stoti
##isiju
##rado
Vama
magistra
Pomo
službenici
81
načela
##tinga
Society
najvećim
##kica
uspostavlja
parku
##gorija
stiho
povrće
konja
fokusi
svetskog
financijskih
razliko
proračun
BMW
svojstva
unutrašnjih
umre
##noma
zaključiti
iznenađenje
današnjeg
suprotnosti
radnicima
##kinje
##bridge
šesto
edukacije
Miloš
povezuje
parlament
##snica
Obo
##žile
izvješća
primiti
Vese
BDP
kratkom
odbio
ekrana
Blago
##čenom
iznose
protivnika
##đima
Grupa
ble
##jala
##mska
Ora
My
morna
news
čijem
zvezda
SRBI
Predra
racu
##bala
želu
vezanih
kaši
Gradonačelnik
očekujemo
koristim
parlamentu
bele
SB
budite
internetske
dostavu
dikta
##dića
otkrila
dugu
razgleda
Sava
##vozu
vojsku
teorije
seriju
slavo
dobrodošli
##ves
##stvr
perspektive
##SO
brzinom
##ston
##njska
##lozima
posvećen
##phical
Nešto
obuhva
pogu
cini
knjižnice
zapita
##nder
obuhvata
Ham
fir
savjete
ljepote
stakla
strategija
neograni
privatni
##znice
divlja
hemi
Istre
profila
različita
većem
Nikada
smanjenja
duge
Iran
##lp
bog
majku
dviju
##organi
životni
regionalne
parka
proži
orijenti
registar
##sana
evropske
ljudskim
završen
konzumi
NK
##pih
Zahtje
##ews
pritiskom
##čavanju
cemo
Zavod
##lniku
vratila
Sanader
nikakvu
punu
##teti
dize
spušta
##gon
kruga
odvaja
zamisliti
organizirati
postavljen
mjesecima
poslednji
bogatstvo
prioritet
fotografijama
uvre
##tci
virus
kontrolom
krila
pozicija
Volim
održala
##his
Korisnici
metabo
naruči
Gospodin
kvalitetne
vero
sedmice
zanimanja
desetljeća
slušati
kardina
lozi
##car
##čat
finansija
ces
bod
1989
naran
odgovarati
##wu
akademije
Jednom
izabrati
zakone
izračuna
##rijom
##jućih
birača
osiguravaju
Master
uživa
Istar
unos
Moramo
##grije
Amerikanci
jesi
stekao
Ira
uzrokova
Dža
presto
konkurs
##ware
preuzeo
Allah
upoznao
##sed
razlikuje
##untry
slikama
##ševa
jugosla
stadionu
skloni
reklama
droge
starom
ciklusa
Trump
računalo
kabi
php
Hen
ostavite
pokrovitelj
Part
svojeg
sing
Ukra
##knu
zoni
Uredbe
##win
razmo
Nau
privrede
##pela
dodala
Uspo
##logijom
##senja
jezikom
Gospod
Bis
##niran
bliže
datuma
drama
glavnu
##nae
rase
generala
čitanja
opšte
kopi
navod
##teljem
uzdi
povodu
Tužila
marketing
osnovno
liniju
uporabu
zanimljiva
namjerava
##nton
muzike
Ronal
tehničkih
napustio
istoku
energetske
resursa
časopis
##kari
##ntnim
##ničkih
Info
uradi
pisali
make
podizanje
trud
Sara
priopćenju
el
žrtva
koalicije
sola
geona
reformi
##pru
masla
neba
Radu
materijali
##čniji
pokraj
novaca
tjedni
elementa
ribar
kazališta
provoditi
dogovoru
##xy
Ina
##zao
##ZE
Ći
##lskom
HZ
otkup
najpre
pobijedio
Ya
potpisali
lani
saobraćaja
slobodnog
zainteresira
kompete
ukraji
RTS
pronađe
Nismo
185
117
zivot
prijeti
izlaska
dari
geonames
priroda
Pisa
dokumenti
George
ohla
mega
prelije
##likop
emocije
Novak
Mio
##staviti
potpora
ine
snimanja
stupnjeva
Muzej
Česti
Balkan
##mino
poboljšanja
integracije
najni
##snike
centi
ustvari
svjestan
sudac
vjera
Monte
lansi
obnovi
Škola
##tiraju
geographical
frizu
promi
Prima
vlastitom
vjernika
osnivanja
##jt
turističkih
registracije
sugrađa
##tovanja
zaustaviti
detaljno
##fil
homoseksu
medalje
zama
seća
Koša
Val
##RED
unosi
sagleda
##Names
##šanja
Dvije
GeoNames
nabavke
izgovo
##kovati
primjenjuje
##ćenim
knjižnica
javnoj
utvrđeno
##Tube
Panče
volonter
izlazak
privlači
Kompa
potvrda
europskim
##nor
##sani
prevlada
jastu
Istan
promena
reflek
iskaz
dezin
##jednostav
veličina
Jose
prehrane
ogroman
podnese
##ŠTI
zahtjevima
saslu
LED
naknadno
hrvatskoga
JNA
manjine
trag
natrag
koko
pretr
sjaj
Zorana
javiti
##да
usne
line
stići
##nec
Đako
JP
London
Kraji
komanda
Sanja
OVD
##čenjem
Dinama
draga
oma
tata
Biogra
##strom
povezana
OVDJE
##ciranje
Lau
##ло
obrada
Ovom
zime
timu
##kel
provođenje
79
stabilnost
čekati
Austriji
konsu
tajnik
bijeli
##ње
##16
Univerzitet
intervjuu
##knuti
Austrije
referendum
sjevero
##sali
učesnika
kalendar
CA
KON
trgovinu
sali
zdrave
organizma
porast
##lonu
Barba
učesta
ženske
rep
##TNI
rukovod
pise
##lem
pojavljuju
spoj
psihija
bliza
meča
slažem
Zlatko
##aaaa
masi
loša
saopštenju
dopunama
američka
AK
prazni
bitna
zastupnik
azi
seriji
Konku
prehrani
##17
priznao
zaključuje
Pavla
nesu
pružati
gradnju
proizvede
elemente
hekta
##MJE
Kvali
transforma
postiže
plaću
##vanom
bb
Beču
uredno
blagoslo
dodir
plati
##stih
stručnjak
emiti
prikla
AT
Grabar
XX
##čija
Kongre
zaboravite
FE
##lazu
##ney
televizija
1985
##listički
postojećih
scenu
oduvijek
Milošević
Pala
##znica
prit
Napomena
mješa
istoime
vjetar
uporabe
neprijatelja
##daj
crveni
vojnih
Eco
istinski
oktobar
malolje
Vodo
utiče
nadamo
rijeci
Skupštini
biro
bazen
##ruza
zabavu
planeta
Trebi
ciklus
ubuduće
režim
gledali
Srebrenici
Ugovor
živa
državna
deblji
evidenti
papri
##nter
državnu
fleksibi
nesposob
bazira
liniji
Hrvate
Mirko
Sli
uživaju
##very
##berta
promociju
dnu
prijavite
##deli
Dizaj
Los
##ral
traju
prozoru
tkiva
filozof
održanoj
Svakako
pišto
zabranjeno
nastale
YouTube
##ljenjem
predstavila
predstavu
Ode
Uspje
##ljiviji
##ew
plina
Skupština
tomu
Kneže
zaslužuje
neprestano
vege
živim
izdava
pojedini
zale
Karama
dovede
Istri
izražavanja
gran
istodobno
rekord
bloka
Good
događajima
Kontakt
ptica
neja
##mjena
Trgu
Bolje
zagr
nesa
##ira
Isuso
evropskih
Wikimedia
Sle
uređaje
Kliknite
povezan
Hajduka
programom
dokaze
zahvalio
Rade
prozi
Publi
UK
poslovi
##vrsta
prihvatio
transport
fiska
predstavi
Slika
pokušali
parking
jučera
fali
don
fino
Kovačević
izborni
posjetili
##jali
fasci
##pno
nikakva
organ
domaćim
Nenad
Kraj
pomogao
Kitarović
##tića
##dnju
##rovima
Fri
besplatne
##ljice
Haa
NN
zavisnosti
##okru
Pis
kvalitetan
Izgleda
brige
ispuniti
##misle
završena
##ngi
uporno
##misli
##kida
radnik
ac
stresa
vrate
oporavak
brigade
mladog
poši
etike
##vic
Parlamenta
Posa
##tiju
са
Najče
dijaspo
pokriva
skupu
##hiji
budžet
Spisak
takmičenje
Memo
razma
##stin
srpskim
Izbor
##mania
iscrp
uput
priu
##44
kulturni
mjenja
smješten
mrša
pogrešno
Ive
Upu
##gona
pokreće
sjajno
zamijeniti
##hor
##laskom
krsta
##komunika
spasiti
odlične
ovogodišnji
određenu
ljubo
navike
##mića
nadogra
raspoloži
Factbook
prezentacije
drugoga
pretpostav
##tanski
zadnja
specijali
najveću
dogodio
ponede
unutarnjih
sadržajima
##šoj
neočeki
planova
##rilo
##veru
znanstvenici
Andrej
poslednje
konkur
pogodak
trenutačno
graditi
ocjena
otvorila
retro
##FC
##cirati
zahtev
realizaciji
cvje
trenucima
nasmija
Lea
engl
zdravlju
različiti
Bosa
postupaka
##citi
sau
kazni
trene
zabavlja
Andrija
Van
uredu
##ljić
braku
##ters
maske
terapije
##JEK
iskustvom
završ
dvorištu
predstavili
veru
povjere
##cena
##pski
ustvr
##čujemo
slatko
ušli
najvažnijih
doc
obrazac
voć
##lej
dvadesetak
tala
korištenju
dolasku
Nadzor
dogovora
loši
82
naprave
Želimo
##cionih
##MC
Europski
predmete
prisustvovali
infekcije
devedesetih
##xt
okvira
Između
atmosfera
bitan
podjedna
##lesu
statistiku
negde
##press
popust
DJE
izdavača
Prvog
Uprava
DJ
učenik
##HI
##ngo
##zore
peć
##teljstva
AD
##tivnoj
obratio
gradskih
index
decenija
stečaj
##tuzija
označava
omogućuju
poznatog
##neo
unapređenje
dvorane
intereso
uspjeti
zaobi
utisak
duhu
pronađeni
##đaj
Jas
Mlade
##sala
##tta
sedmo
financiranje
socijalnog
tvrdo
##ljujem
crveno
##pca
jutra
strahu
Ska
zanimljive
strašno
zam
Pravila
mera
mobitel
##tovati
Gotovo
debi
##renog
dodatna
parce
zaigra
Podgori
##pala
##NJI
##сти
širenja
##stije
emociona
Početna
Crvenog
alat
cenu
baj
kažnja
centara
kim
kamera
Protiv
##gue
povratku
zainteresirani
Gimna
bazu
Dobi
Odsje
Nepo
pogon
doručak
politikom
dozvola
zapu
##luk
javi
ključnih
EB
bruta
Odluku
nazvati
subote
##apa
##ganista
bija
oblast
januar
Zaštita
oznaka
zgradu
##njka
kiše
Kolačići
baterije
zakonodav
helikop
##boja
piva
vladavine
iskustava
filmovi
lip
##nejdže
poslužiti
XVI
konstitu
uglji
##daka
pokrenuo
skupštini
Bea
hap
individual
popisa
okoline
utrka
##dvo
jedana
##žit
zvanično
učiti
porodicu
čula
##pani
##čevi
upotrebljavamo
dokazuje
minim
RAZ
protesta
dokazati
sok
ostvarivanje
dodajući
današnjem
##bnu
uprkos
Fre
Europskoj
zabio
nepreki
Turskoj
navijači
litara
primanja
Festivala
osjećam
maska
zarade
predstavnike
profesionalni
grudi
pandemije
Dalj
reprezentaciju
##stran
##ševi
Fond
##politi
dekora
političkoj
##sava
nacije
ključ
Odno
##džić
157
Toliko
odjeću
službeni
starim
##teoro
jezicima
Razlog
razumijevanje
##sletter
##žje
Black
zakonima
##MEN
##stera
premje
suho
objektima
noćenja
odlo
skupština
forme
Idi
udjela
LJU
geograf
vjerni
2021
mozete
skroz
##tovali
diplomat
rasvje
Makedonije
kćeri
idealan
rane
uklanjanje
##dali
izmi
##želj
Zagrebačke
prodati
##ments
kriteriji
jesam
Kaže
##smje
prisutan
radije
Muška
Kola
Odbor
komprom
boravi
ozljede
##lovića
izazvati
potvrde
Možemo
Takav
##jani
izazove
poviše
volite
blogu
kolačić
trideset
šampiona
gine
praksu
sabora
##ševića
haj
##zvu
##more
prozora
##sch
uslo
Govori
izdr
prevoz
vlastitih
teorija
zube
drveta
##dem
##jave
krediti
##lasku
pretraži
poštuje
stope
USB
visina
##genera
ljubavlju
jednoga
svuda
Dobar
ključne
dej
priznaje
Apart
vršnja
il
zemljo
šut
ulaznice
Put
Jugoslaviji
да
slavu
##dinske
vanjske
prikazati
napravljen
Konsta
nesigu
vak
šved
objekti
sakuplja
turizmu
idealno
Ski
##šaj
iska
Sku
posvećena
Nedo
ekipi
internaciona
Savje
kanal
napomenuti
kali
detaljima
Cambridge
navesti
sur
spis
muž
##stici
obratite
davanja
Jor
1980
ostavili
istar
potaknuti
peći
konačnici
uredni
##sanja
četr
vidljivo
blaže
tlo
kreveta
namjerno
Izbo
kamoli
Doku
Rekao
društveni
1986
Merce
187
približno
osnove
onemogući
siri
predsjednikom
Premi
koli
Okru
prijavljeni
društvenog
potencijala
novcem
##zorom
međunarodnu
##ljujemo
Kasnije
prijesto
Saša
lijekove
zakup
najra
wil
svlada
uspešno
posledica
##zirao
službene
##teh
##cript
razgovarao
prevodi
DR
Sadržaj
Erdo
Svoj
##CB
ukloniti
troši
Mada
povezani
Nego
pluća
Meksika
Nedavno
##gn
neraz
vladu
granicu
Bori
Dragana
truda
Suda
raspolaže
pametni
planiranje
odjeće
Sabora
et
istoriju
crvene
suglasni
laž
##box
biva
pitati
poslanika
reme
stručna
Ostali
podnošenje
entuzija
sudionici
##cus
prenese
##đivao
pronašao
pen
##niranje
pristupiti
Pomoć
tradicija
Marić
##ravnote
##nara
poprilično
sveučilišta
NBA
deklara
predsedni
datoteke
##novog
benda
Britaniji
USA
##vjeko
ujedi
čimbe
ostvarila
dulje
kuri
desne
iznova
mise
##FOR
apartmana
XI
##dovati
Bivši
##venih
Glavna
trpe
objavljivanja
zas
najgore
inostranstvu
snažan
Paul
Pin
Istraživanje
korišće
##VNO
vezani
volja
dalo
##rniji
She
gradili
glavo
Opširnije
radosti
jebe
##play
posebnih
##bl
Can
##burgu
##mne
Crea
vodećih
jaka
dobivaju
najuspje
namirnice
##BU
##gati
ostanu
septembar
##laženje
Gospodar
##uri
Gradska
zaintereso
postanu
Standar
dole
sne
nale
Budite
osnovnu
legitim
##lnice
##matika
##m2
Iskre
Mene
nadah
plaćati
vreći
razlozi
Željka
prisutne
AI
eti
arhitekture
nadbiskup
##znosti
neprimje
donira
vanjski
provoka
likova
manjim
##fikacija
raciona
kroni
zasad
Twitter
skupo
bolnica
povezane
objekte
Leo
Jedini
##loka
Bogom
##vskom
upravu
##lana
Facebooku
učitelji
brend
genet
Nacionalnog
plaži
zape
Dosta
preokre
##ziona
Obavje
određenom
isu
preuzimanja
krše
naglasiti
termo
Sveučilištu
qu
##tz
kosi
Stva
provedbi
opasno
##strana
odbije
##tube
biljaka
##io
##namje
misliti
upozorio
nastanka
Dej
ideal
zbo
stani
liječnik
slabi
guma
stručnim
tuđe
uvodi
Susre
##obu
moga
mirisa
pristoj
maski
Pojedi
modelu
pisanja
Kup
mladosti
droga
Prote
Dušan
dječa
Priti
##rte
drasti
bad
pripremili
##zara
Upozna
medalja
##sp
pobjedi
##pat
učitelj
šefa
upućuje
opi
srča
zapam
magne
stranim
tvrđa
Bud
##maj
Vuka
bogate
SD
zaredom
milosti
onoj
rođa
ligu
Dejan
predje
djelovati
Psi
##njanje
dječaka
##jenje
186
Žena
posebnom
STRA
##art
National
njezinu
dijele
namijenjena
##hić
Meksiko
udje
odjel
HSS
Šuma
##ćo
doduše
kave
cura
odrasta
razumjeti
Milorad
stopala
promocija
##dika
gospodarske
##cin
Sini
##gorje
pismu
Natječaj
riješi
pojedinci
najbi
##CC
shvatili
Bošnjaka
testiranje
izvesti
covjek
SFR
##ljenost
Povratak
značilo
##ntia
eventual
89
zaraze
svibnju
planine
Koli
visoku
##gy
ozbiljan
obavljati
gradski
Nišu
telekomunika
vješti
pari
bezbje
Svoje
Maga
saradnja
živio
župe
mol
nano
##del
mona
ser
terapi
##klom
upoznali
vojnici
zaposleni
kategoriju
izi
mart
prestaje
##medija
##formira
tečaj
auta
##pravnost
Potpu
simptomi
Play
Srbin
razra
##NIK
Kosor
Ljubo
dodatnu
otvorene
Rusiju
održavati
zaje
##°C
Sutra
određenog
Moguće
lokalnom
##ljeva
Zajedno
ponovi
napore
instituta
građevina
tretmana
NOVI
realizacije
vezan
središte
supe
policiju
izvođača
svakih
domaćem
##tini
istini
teritorije
##retvan
manjih
Saznajte
obrta
britanski
Hra
podrazumeva
najvećeg
cure
pokušaju
dnevnik
Tehno
zajedničkim
Živo
Pula
##ing
ispunjava
Nadalje
##vačko
##teljstvo
pravim
kapu
Nače
izgla
davati
Vatika
trofe
postavi
Maro
uvede
Smo
licen
cijevi
bezu
saže
aktivni
nezaposlenih
nastaju
djelatnici
lidera
negi
Matija
1972
Kle
zastra
snimke
Vjerojatno
##zema
prikri
enciklopedija
##čji
prisustvu
##cle
aplikaciju
obrnu
uvesti
##sica
kupili
Domaći
odlučuju
usput
izmedju
Pita
Ruski
elementi
temom
##ket
podseća
Kak
##cher
poslijepodne
Bruxel
dovode
zelene
Seve
testiranja
##saj
##stracije
##ffice
##ženu
muziku
Hla
dugogodišnji
prevazi
teških
parkirali
najvažniji
##dr
nos
fizike
BIH
kolegija
modele
sisa
pričati
cara
Mjesto
zaokru
proglašen
obuku
genija
##šenih
zapadne
čišćenja
sredinu
pratio
JavaS
Živi
obroka
franje
##zali
rujnu
odsje
udio
pogađa
izbjeći
tijelima
radovima
etno
Centru
tekstove
##stal
klubovi
##ру
kvarta
##saka
sudbina
svjedoči
vidjet
obrani
naiz
najavljuje
kontinuirano
knjigama
Tita
korisno
dodjeli
PP
##dero
##ceut
vožnju
##rvatski
TRA
Bandić
vođenje
misije
uradio
predvodio
potražite
POS
postepe
europski
nacrta
seme
kriteriju
uspeo
ispri
mišić
demokratske
Dalmacija
napravite
ozbiljne
##ero
njemačkog
ispisa
Prof
djelomično
Moskvi
Europu
AN
##rar
podržavaju
Martina
jugoslaven
dnevne
gole
nisko
Kandi
videli
##48
NIJE
start
stanovnici
##deru
zatražio
jedinstveni
filmovima
Dimi
170
cjelovi
karakteri
prikazuju
##sice
uključeni
svrha
znas
Bara
uspeh
Zemlja
liječenju
otpla
asocija
obljetnice
ulazu
Kolo
motiv
poljoprivrednih
Cer
neznam
pobijediti
moli
medalju
poslali
mobitela
##NICA
konstantno
serve
##žana
terapija
##žnici
patrio
ID
Nezavi
motori
značajke
značajna
najboljem
energijom
##Po
prezentacija
zagrebačkom
litur
narodni
dužine
tisuću
ish
Mark
pravno
Ovde
Eks
brza
##elektra
Partizan
vjernici
Sveta
obnovlji
akademske
Međunarodna
sporti
svoji
zemalj
pratnji
JO
klijentima
KI
##ničko
promocije
načelima
Američke
Imao
banci
zabele
odobrenja
greška
doprinosa
ušla
##gin
nastupiti
snova
Aleksand
osmišlje
leđima
tok
##redo
okupljanja
važi
Istanbu
reforma
Eri
##fikova
hidra
dublje
nemaš
materijale
pružili
značajne
##znam
Richa
ND
vremenima
gumb
osigurali
opstanak
iznosila
religija
##stavi
izru
##ČKI
suglasnost
dostignu
Igre
simptome
##šaju
neizvje
lokali
dokumente
##29
potrebnih
Eras
upotreba
potvrdila
Kame
hranom
##ček
alba
AU
zubi
akademi
stanovi
preminuo
civila
poluvremenu
##ntury
cele
mislili
Onaj
##bljeno
Baj
proveli
##zova
svete
klikom
rijeka
primor
bosa
procedura
suče
pesme
kapacitet
tačke
TRE
##nile
kućama
postupcima
##nea
potpisan
prosjeku
##core
vodila
kapital
razvijati
predsjedniku
postojala
tvrtku
##cuju
svašta
postavljaju
Bun
općini
migranata
nedostatka
župan
pljačka
##bana
besko
saznanja
##ia
prostorija
muškarce
izdvojiti
Bravo
Pola
izdvoje
mimo
##plova
isteka
##šete
Svete
##ŠTE
refe
precizno
doživljaj
Ustava
doprinose
gala
##tic
osobom
Studenti
ubijen
udaljenosti
dipl
##njavanja
sloj
Križe
##cm
show
raznoliko
dvorana
predstavljena
##ŠT
divlji
Crnogor
upisao
vodili
izlaze
kakvih
zapos
ukazuju
##ljub
objavljuju
uzimati
privatnih
##godišnju
Niš
stolu
praznik
##luja
dijaloga
prilici
međunarodno
proči
Dobra
Cli
posetio
Europskom
zahvati
##kn
Izu
presuda
Goraž
nomina
omogućavaju
znakova
učvr
izvorima
ansam
povrat
Tuzli
##renjima
oblike
Tomislava
uzimaju
CMS
hektara
izvedbe
kupila
sovjet
deluje
kriminal
stavak
Duha
klijenata
Die
zagovara
kriminala
težinu
Raspo
nalo
##TS
Isko
Opština
bub
zabrane
prired
današnjoj
##tivac
državno
svešte
zablu
105
trg
zaustavlja
rak
konven
##paju
pacijenta
februar
Treći
Preuze
Majka
Britanije
efek
##treba
otkaz
Pozivamo
privile
primjenjivati
##fek
##ges
tram
nepos
##tele
sklop
din
osna
cve
otvaranju
sun
##jac
volimo
preis
##RIJA
Nemam
negativne
pitaju
struju
##štavamo
procjene
sinte
razmišljanje
##štiti
##gs
kerami
čuda
temelje
oglas
Poro
suspe
tenisa
Sveča
medijski
groblju
ravnatelja
##dis
Josipović
##qua
veterinar
##snice
##Lj
##vku
element
razlikuju
neže
živjeli
Mesić
Radno
propada
neovisno
Kreši
sponta
republika
pasi
Bugo
davanje
minimalno
svećenika
nadolaze
četvrtfina
##zy
niče
korisniku
savjetnik
otro
revoluciona
##ljivije
Vašem
deteta
optužbe
with
objavu
##tea
Voji
##gorije
##šča
##ženosti
članke
našega
Razvoj
specijalizira
mislila
##rale
stižu
utječu
Stano
mnoga
Cooki
zajedničko
1988
##sera
##njavaju
##ljivu
prešao
Sand
poduzetnika
Diplo
Razu
Potp
OI
##pali
kontinenta
podržati
mislimo
##gradnju
trošak
voditeljica
nezabora
Vrati
boraca
##tena
##grafija
##Me
govo
primaju
privatnog
##žavanju
istakla
rame
noću
Tvrtka
teritoriju
Rimu
vraćaju
praznika
KUD
Osijeka
uključen
zajedničkom
osnivač
resor
okruga
obrt
redatelj
započeli
Ur
klupi
karticu
##lskih
muslimana
##pim
##diplomski
##obuhva
##nie
Tesla
doveli
osoblja
power
zatražiti
uslijed
##sing
provjera
Mre
Služba
Milu
##elu
katu
tari
##non
kiseline
temperaturu
ikakvih
jezici
##stalom
Ureda
hoce
stila
logora
Evropska
##vljević
Alex
topic
##kavši
snagama
naprosto
ceka
djelima
prestati
##VAN
organizatora
komunalne
Poža
šoki
partnere
nakla
Registracija
otvorenih
obuke
stvorili
ugovore
veličini
1987
Sim
cookie
##banj
ponedjeljka
##lovao
Samsung
podupi
postupke
navela
##taju
suvi
JavaScript
kombinira
katalog
daro
pirami
Lokacija
stres
##zijom
Amba
Đa
udžbenika
treću
raspada
uzrokuje
volu
priruč
okupi
kvar
##ljivom
##gode
obavezu
zanimljivih
doktori
sudjelovala
##sora
privi
beži
subje
uslugama
##đivali
točnije
Eki
sličnim
##stvene
čiste
podlo
zapovije
Hol
standarde
socijalnih
KK
##risto
##ercep
šport
otpadom
Ban
##bal
itali
##kice
Grača
pišem
Ane
kardio
Dalmacije
Grčke
Jack
razgovore
spasi
nevladi
##vajca
išli
Century
Thi
ZE
##DR
sjedište
Ovu
##šnjom
Saboru
Bernar
deba
ocjenu
posebnog
Bari
sakra
tačka
##NICE
ples
redovni
tinejdže
prirodnog
Neboj
lijeka
##ск
okolini
AR
sudbinu
prijateljstva
glazbeni
Peri
gospodina
Blue
Wel
nekima
sprovodi
ponosni
brodova
zvezde
edukaciju
##CIO
mito
veku
primo
Grand
gospodarski
pojavlji
oslanja
prvobi
piti
studio
Sina
četvo
che
karata
intim
sudeći
##ziraju
Sunce
mijenjaju
trećih
Mal
građevine
osnovan
##os
utvrđuje
dobijete
utvrdi
karci
At
rom
Kva
duši
ručno
pretežno
##Pu
reago
seminara
##jer
##zanju
platforma
sra
odražavaju
про
Del
rasi
izvođenje
##lub
##mann
##rimo
potvrdili
imuno
##PE
omo
povezivanje
srednju
zamišlje
predrasu
##35
atmosferi
srednjoj
kruh
Mariji
svakome
asor
planinar
cipele
Činjenica
posljednjeg
pozivu
poremećaja
destinacija
##volje
suze
er
Osjeća
sudom
rukometa
profesionalno
reše
fizio
Dija
Povijest
zabava
Kakva
ubiti
zbilja
##zza
nastavite
interven
drva
inspe
održavanju
Čović
##loru
##onar
Zvoni
Sljedeći
svjetlosti
##prem
1970
organizatori
tajni
april
##19
donekle
obavijest
suk
fizička
račune
govoreći
ugla
jezero
nastavili
čuvaju
svjetskim
Indu
vojno
kakvom
sedmi
Škole
Digita
Vladimira
tražite
Predstavnici
Manche
Tea
kalenda
ekonomskih
tego
##pama
rodila
komora
dnevnom
##bura
ubojstva
kupuju
priorite
srpsko
prihod
EUR
preglednik
Radovi
pojavu
spavanje
policijski
novembar
osjećaja
meču
Rovi
junior
sjednicu
uspješan
reper
alkohol
ispravan
uzora
Bošnjaci
razumijem
##stice
Tadić
mirovinu
privatnom
##ržite
karakteristika
gineko
okruženje
Ujedinjenih
##14
Free
osjeti
proslave
cemu
rate
kredite
momenta
trijum
razmišljati
školsku
sastojaka
##ćnosti
pčela
##sance
Tuđman
brinu
plin
##style
neretvan
##mas
##rojatnije
Jasno
Upi
skupinu
Neko
događaji
Niti
nedovoljno
mobilne
roda
Sjedinjenih
##tovu
uticaja
pacijenti
izlije
faktora
##gradu
Vašeg
##TAR
skulp
vaši
Potvr
пре
učinkovitost
Jevre
tesko
povjerenja
Jovana
Kakav
objekat
ekstre
##šiću
konte
Poja
mas
mladića
Podsjetimo
potrošnju
##nzu
zadatke
front
najam
medijske
Tuzlanskog
More
uostalom
pošalje
Njega
Dačić
braća
figu
##issance
primjenjuju
školskoj
Fla
Lit
AA
dijeliti
poboljšava
##lud
Opšti
trebati
Katarina
ponudio
snosi
simptoma
Sjeća
kvaliteti
nevjerojatno
išta
Građani
prihvatili
konzulta
Bene
##chu
horizo
bijela
američkoj
nedjelja
privatno
Office
##sade
##pni
##laciji
vjeri
kirur
Media
MMF
од
turistički
pogodnosti
age
zainteresova
nesreći
##TAK
kazalište
##ía
lijevo
upisati
vješta
Din
##nala
Enri
jake
vjetro
punim
ujedinje
olov
dovoljna
preti
##nsa
podsjetio
raspoloženje
hiljade
por
Schu
otklo
zabrinu
redakcije
Instagram
State
##nirani
svira
##jci
muslimani
125
očaj
Mađarske
posjetite
Prijave
posjetu
koljena
slabije
##vinom
regija
osjetiti
izborne
Božji
filozofije
povi
procese
Stani
iskoristio
drukčije
pobjednik
znameni
kvalitetni
wor
##mlja
##dski
##hko
metodo
brz
široko
osme
važnu
toksi
##bljeni
ordina
pjesni
istaknula
domaćeg
##skohrvatski
VR
##novod
nadalje
smještena
najmlađi
##ić
sastojke
gube
aparata
korake
Korisničko
Vin
saznali
ocjene
Dre
naglo
dimenzije
##glice
požar
Vašu
dokumentima
dočeka
misa
##štanje
CIA
odobrenje
sadržajem
progre
##tirao
utor
lika
pregovore
preporuča
##komo
počnu
tuđi
Vjeru
Uo
gorivo
Poljopri
utjecajem
Premda
1981
djete
posjetitelji
korpu
sadržaju
##sića
uveća
tvrdnje
ciljevi
suncu
DAN
druženja
isporuke
djevojčice
žita
pozivamo
videa
nevid
##renom
izlaganje
višak
##way
##SKOG
fre
##fora
linku
navedenim
spadaju
grož
##vljenog
lede
ovogodišnjeg
slobodni
Ulaz
nalazimo
crijeva
člankom
ulicu
magazin
Prošle
##skula
Hina
pristo
kompak
Yo
##sr
idio
TK
love
ključni
##GRAD
kuhinji
Prosje
Nastava
poticanje
Izrada
promišlja
potpredsjednik
veličan
stotinu
##DAN
##vare
turistička
Preuzeto
organizator
špiju
Kancela
stipendija
Kale
donosimo
Muzi
njeni
##limpija
Jesu
Žao
Ustavnog
Krsti
polazi
dob
sači
jaje
##loni
djevojčica
krizu
VLA
ostvarenja
trava
gita
##gel
političko
međunarodnoj
##tničke
presudu
sjećam
novce
lične
Branka
upe
smjera
##čati
platforme
ŽE
zagrebačkog
grijanje
primili
Ću
##ena
lopte
Danije
suvremene
učinila
vojnog
Direc
milosr
socijalna
GB
##tempora
##ckom
podjednako
Merkel
mogućih
Berlinu
sveobuhva
ocijenio
##sem
sklada
Makar
ovr
sljedećim
napustiti
slado
poluo
Visi
##siness
##zine
medicinskih
Erasmus
Romania
SSS
muzika
stranku
Stjepana
ometa
prethodnog
masu
zanimanje
generalni
kvo
gradom
poštuju
Multi
Federaciji
uka
Veče
poginuo
Popu
insisti
trećoj
organima
učestvuju
narko
temati
##nomic
Budim
unazad
svijetom
autobusa
priba
besplatni
Plus
jednokra
mrtvih
kćer
ulaznica
ulaganje
automati
plave
Prven
košu
povući
smatramo
kvalifikacija
Stvarno
##bela
Dnevnik
Svjetsko
sajma
kakvim
##KOM
čudi
radionicu
investitora
Tradi
Obavijesti
antibio
##zović
bilja
procedure
restoranu
sprovo
obnavlja
lipnju
uši
Hadži
savjetovanje
Most
Košarka
ulaže
Omi
nacionalnu
koš
##prot
spolja
ovakva
eva
##ljina
##dnjak
bezbednost
Pritom
Koordina
tjednu
Roditelji
pravog
percep
nedelja
rukovodi
zadi
Krka
gotovi
izvući
nabavku
starta
##cine
polaznika
verujem
Šibenik
najpoznatijih
kazem
važnije
jasna
slati
Samosta
brinuti
uvjet
Sum
##tkinja
##ganja
##zisti
prisutna
Krist
##OO
osvjet
##rnicu
uzeli
PLA
pobjedom
Slobodna
##temporary
duća
isključeni
srcem
##stad
pojedinačno
Santia
oglašavanje
VELI
važnih
glavno
kozmeti
Zaba
prilagoditi
predizbo
##kera
političar
uključe
##STE
##rja
##njivanja
Nekada
objavi
doga
dopustiti
temperatu
Lou
gimnazije
ostvarenje
ispričao
##chive
Filozofskom
Imali
##KON
životinjama
kratke
negativno
održali
američkom
nest
objavljene
upozoravaju
birati
mlađim
mnogima
##LJU
Charles
ritam
bodove
korisne
##rol
Zaista
pristupljeno
biraju
baran
ljubitelje
američkim
uzrasta
vjeroja
се
dežu
vlasništva
glavnim
dojke
##lilo
lokalnog
dopis
pravoslavne
ostvaruju
načinom
staru
klasične
##braja
##zala
žrtvu
voziti
formiranje
odustati
Jučer
otvorili
Najnovije
##oooo
prikupljanja
objektu
nabaviti
##TRA
ženska
pomognu
počini
##rus
##bde
softvera
##bovi
Vite
ispe
konzo
redova
kolekcije
Gospoda
ponoviti
ukupnom
Stefan
##DNO
Grčka
Cel
Daj
##terija
ent
presko
Mara
##ntom
izvla
povlači
prigodom
##AE
UP
Vladu
sjajan
gospođa
##pac
zaštititi
KRA
oštro
Biti
filmski
vjerujemo
posjetitelje
manastira
informatike
zdravstveni
Obavijest
ovisnosti
prosti
muzeju
episko
kupac
Contemporary
vremenski
poezije
biskupa
predstavljati
Vučića
primjena
stadion
##84
navika
##gusta
##slobo
lovu
mentor
omogućio
baka
1918
poginulo
SFRJ
Boja
logično
Republiku
##lijanske
##terpo
Peru
nepokre
članom
##službe
uzasto
##roš
podići
bogati
GLA
činilo
postavili
Ukrajine
##jućim
uklapa
##cim
skinuti
maloproda
##jl
Polju
##gni
čuvati
krevetu
gledamo
UE
Bandi
gledajući
predstavljanja
Đe
srednjeg
##ller
bitne
Kalifor
Dri
biljka
doživio
okruženja
pokrenula
arhitekto
gradskom
tijesto
Početak
Obu
tvrtkama
regionalni
koe
vrstama
haha
srod
sekunde
podruž
okrug
službenoj
Musta
Prava
otvaraju
konsulta
emocija
Projektu
cvijeće
slobodnih
ljeka
predložio
najuspješ
Nede
redovima
zbirke
interesima
pameti
govorila
doi
List
prepreka
Palesti
činjenici
Nedje
letje
Pratite
Pretpo
##hoto
oboljelih
##ćenosti
standardi
##svje
Russe
likovi
pape
znaku
##sin
Narodna
jugosloven
praktički
Šte
Naslovnica
##dnevni
lapto
muke
Bayer
dečki
ljepotu
Muha
Neće
otkrije
zajam
##llu
##žnicu
posljednjem
pisanju
Slavonije
spisak
priopći
vio
zakla
obrok
potvrđeno
suđenje
polaga
suprug
##maka
VIJE
Varaždinu
Sever
svjetlu
ira
##move
potpunu
slobodne
našom
Državni
leže
biblioteke
popusta
ekonomija
Neret
##tiona
ceni
financiranja
Promo
očuvanja
##ON
NDH
##kvalite
Villa
pozitivnih
odgojno
##jev
dajte
Stri
Ruko
poduzima
##tehni
makedo
ugovoru
intenzivno
indika
Početkom
##HE
profesori
Konačno
nastavljaju
Britannica
pedagogije
oboljenja
kupuje
Og
učestvovali
nađu
uvjerenja
kontaktirati
Uslu
uređuje
zraku
obećanja
zadovoljiti
##gine
decembar
Područ
lokaciju
zbivanja
poslodavaca
##privre
pano
grupama
uvjeren
prijelaz
vibra
usporedbi
stane
Doš
narodnog
obiteljske
Uma
##zovi
##stičkih
prijeno
##то
Crvena
Ponuda
krajo
##cea
blagdana
bilježi
osjećati
##nskoga
Istak
motoci
##vrat
razni
General
postojati
osnivanje
dovela
Poruka
glede
CAR
predmetu
najavila
fazu
Inicija
veleposla
pročitao
služiti
Njujor
podstica
snijega
aparat
dota
Stara
planirano
##tetima
nemoć
verziji
kompaniji
Javna
najzanim
pomoćnik
Mati
Muzeja
minimum
povjesni
propovije
zadovoljavaju
javio
##cenje
zeleni
kampanji
sportskim
ii
##čujem
kalu
Jos
sestri
##ŠTA
Upravni
prepla
koalicija
vežba
Podsjeća
daljnjem
##zera
usam
aktivan
Roy
slobodi
uvjerenje
Vašing
kupnje
bespovra
takodje
Japanu
poljoprivredi
Hali
Ori
##dz
country
Izetbegović
Shi
##ljna
##čiće
talijanski
opore
##brzo
Dodao
klubovima
##71
nadležnih
detaljnije
##ktivnosti
bron
obrisati
zajednicama
##šani
##vođa
##znije
Podgo
##ња
učestvuje
genocid
##ud
##cci
smeće
##losno
Zra
KOJI
Srem
Hrvoje
NS
izbjeglica
zrakoplova
Utakmi
solidarnosti
sudjelovalo
LU
udario
jednogla
##dane
nacionalnim
Zabora
Lji
pomije
razbija
išla
Cari
izazvao
Stože
Topli
vrtu
dobilo
širok
##fre
čiju
Gradsko
napravljena
nadležnim
naglasak
##ream
privatnim
slična
poštom
vijećnici
##tho
metala
razvijaju
objašnjenje
##NIKA
poglavlja
simu
liva
##ruz
pm
komplika
držao
Gol
konkurencije
trenutke
##STVO
Japan
Njihova
najpovolj
instalacije
##tler
##venog
izvore
dobijaju
opor
Takva
počele
prepusti
godišnjice
povijesne
##nds
terorizma
infrastrukturu
##fta
urbani
##ljačka
из
##manom
Hercegovinu
ita
ustra
Ibra
##hto
teškoćama
##lity
časa
##day
prtlja
okus
##zapa
spoje
##siranje
Rezultat
centri
##šije
identifika
provjere
projektom
luci
book
##žbom
Projekat
impresi
Lijepo
liječnici
svesti
Đoković
pohvale
kritika
slucaju
spoji
knjižni
##quest
Uskoro
Srednje
dram
infekcija
dobrobit
kvi
tis
kontaktu
cjepi
mlad
poticaj
kreme
spot
susjed
gospodarskog
spavanja
mg
##jović
prisje
koor
##dol
tvoju
hormona
fotoapa
gur
evanđe
svjetska
Susan
stavku
Tje
Mom
plata
krajevima
kiselina
plod
detalji
Saudi
lova
DANA
jef
Cou
njenoj
testa
Sher
desiti
podra
pogrije
temelja
povjerenstva
otvorenog
Klikom
ministrica
##mislite
##štavaju
braniti
mediteran
Predrag
Obama
razloge
suza
##VR
takvoj
medicinska
mirovine
istočne
radionici
završetak
celog
dakako
Evropa
ekspo
verti
Enrique
krizi
brze
##stavljen
##rovatnije
##leri
ostalima
impe
Santiago
podsti
izdrž
muči
Pli
šalju
1944
Zdravko
ero
napade
kombinacije
raši
##zirana
podni
##tui
kupca
Ai
sjeveru
krivično
oznake
zloči
TR
morat
postrojenja
vulga
učinkovitosti
duhovne
Kaj
HG
prirodna
vukova
pobjednika
pričaju
unutrašnjosti
osobine
##em
ĆE
arap
neposrednoj
nacionalna
Um
sind
organizmu
EC
italijan
##gio
Najveća
##xu
Maru
kakvog
goto
preživlja
##urce
Ostoji
dvanaest
dovelo
Tho
Pregled
organiziraju
##ljoj
Gospodine
svjedoka
gradskim
uvođenja
prijatelju
razmotri
##lic
platio
##ćivati
ostavila
zno
ženski
kara
brašno
kupci
kvalitetom
stabilnosti
brane
##čenu
##dale
zagrebački
##ljne
intervencije
Yorku
##top
večera
učinkoviti
ponedeljak
facebo
vatru
Bol
strukturu
zelim
govoru
Kultura
arhivi
Sloboda
reklami
##rada
doživjeti
Hrista
##UA
Soko
poginulih
Večernji
edukacija
##nička
Mato
nogometne
poljoprivredu
subjekata
duhovno
crvena
uznemi
osobnim
Nagrada
##gma
oglašavanja
vida
uno
več
Goru
strasti
Policijske
imenova
proslije
postepeno
ŠKO
uopce
sadašnjo
ukidanje
alumini
1950
povezanost
##skohercegova
osnovnoj
prostore
domaćini
jedu
sudjelovanja
formula
tradicionalne
Oči
uređaji
palo
ponašanju
epidemije
odaberite
uvelike
predvodi
##tjecaj
pohvaliti
vete
Whi
koristila
##likuje
upotpu
Renaissance
Đuka
provjerite
##93
off
prilogu
naučili
melo
##zbu
profesionalne
nudimo
pravnim
obavijestiti
kandidate
radnji
##stvena
ikakve
##veze
revolucije
otpora
obriše
seksi
##teka
vite
chi
policijske
Krapinsko
MB
trebam
Sony
##neli
brojna
tiho
UNE
ikona
izbornik
spominja
KiM
tužio
##movima
određen
ajde
shvatila
postigne
nepu
hibri
##ih
##yu
Som
kosov
OVO
stepen
##era
bebu
dobara
nanosi
kontak
Preporuke
Djevoj
procjeni
nalazio
preli
tržištima
Serge
##xx
zdrava
doj
rješavanju
preduzeće
zakonski
pile
hrabrosti
raspravi
##nitar
zdravi
idealna
cast
istraživanjima
odigrali
до
stavovi
knjiži
101
terapiju
Pokraji
hiper
snagom
ondje
##cala
proteina
##lsea
##oksi
napadač
zainteresirane
gledatelja
odgovorna
takmičenju
dozvoliti
legen
##ult
neobično
kafa
konferenciju
opisao
svakodnevnom
entry
poduzeti
pokrenuli
##dske
primati
ekonomskog
zaštitom
ogromne
znanstvene
##novu
naveli
penzio
##bia
Turistička
##zai
Goto
taman
Zavi
##nine
pazi
that
Polo
stazi
punih
Ulica
##ppe
izlaganja
Crkvu
osiguranju
##lans
ра
Wol
uc
##LAT
protekle
epizoda
Klini
najavili
##vković
Priprema
sinu
leto
Opštine
srednjoško
ugodan
jogu
veri
problemu
##kultura
izjasni
##njenim
Istraži
Marke
vožnja
činili
kažnje
apsor
kab
##sel
Britanija
unutarnje
francuskog
razviti
suprotnom
neprav
Obe
Velikog
važni
Noć
branitelj
akcijama
nepravilnosti
križ
Smedere
##mce
Veoma
Mat
župnik
##cali
značenja
konkretne
dobroj
pametan
potiču
drug
automobile
nedaleko
komši
toliki
hvale
##vačica
šez
začu
##soli
Cijeli
shop
she
##ljenosti
pobede
Zemu
delatnosti
uzoraka
SAMO
sank
Nama
nogometu
sudi
padaju
Rai
seminar
News
obvezu
Vesti
##pače
rubu
mlje
##povića
održivog
Grčkoj
srednjim
##čemo
Osnovni
##kanje
Redo
Gorica
izvođenja
održane
tradicionalni
Gav
kau
Islamske
izvode
razvojem
rošti
slažu
povezati
1979
Zapo
suradnik
af
veseli
##DJE
Odjela
##njskom
James
eksperimenta
##panje
Polja
MS
Blog
##bir
ulaza
ukupan
##istom
proljeća
iznutra
europskog
komponente
sol
##pola
##lsi
zabrani
##tnički
dq
zadaća
muža
Klo
pozorišta
Neu
ozdra
rej
naoča
Adam
Studija
prometne
članu
oglase
Iraku
zapadu
Zlo
Social
Morate
Svojim
hehe
uspeli
slanje
suradnika
dužna
doruč
obilježja
vjerskim
obiteljima
kruha
Izda
##cker
ceremo
pozvani
1971
Ukrajini
kvalitetnije
##maca
kaz
ist
popularni
banko
iran
fitne
Podijeli
##cation
grade
##ljivog
potrebnu
opisati
Lepo
akredi
rezervacije
Prihvaća
SS
rasho
ožujku
donijeli
jesmo
Sky
##njenog
dovrše
oblicima
uključivanje
Pavao
Ton
delova
filmske
vir
ruskih
kilometra
najvjerojatnije
##cifi
voze
lošeg
arbi
Iskreno
neva
niske
poklanja
travnju
Kim
archive
kampu
##ukup
pleme
pusto
1884
provela
potrošnja
kratak
novoro
OR
Njihov
Kome
Izuze
Zbornik
nekakav
nekolici
Naru
STO
izvedbi
dopune
dvadese
pustiti
milijardu
poslovnom
##tamo
kategorijama
pasto
All
življenja
cestama
njemačke
novije
planovima
većoj
prijenosa
zamisli
obezbije
koncu
poslodavca
naza
Kategorija
1982
Časo
Miho
lokalna
ubistva
bojim
ptice
Glava
Mihai
rasproda
##ćenom
ljepota
##KP
promjeni
Trade
Richard
Gosti
Građa
Očeku
školski
ica
ŽIVO
beli
istragu
vijek
gradove
zalije
Kralj
hva
životno
vozio
Sami
srpskoj
sem
ispre
her
##čiću
autonom
slični
Desi
##zirom
Čim
resta
sestara
tople
nadležnog
##slije
disko
eco
Jutarnji
trajala
genocida
3000
zadužen
Drugim
vrijedne
Glazbe
##mjene
Tomić
Ključne
Tere
kolekcija
brojeva
galeriji
nabro
izgledalo
čelika
budućim
Jour
premijeru
pametno
BEO
stavili
stereo
Vrh
Društ
onoliko
nem
izvješću
1500
##žnije
sretna
veličinu
sigurnosne
planiraju
vjetra
nijedna
marketinga
nezaposlenosti
proci
pretvoriti
humanita
sreb
počinio
službenim
volonti
jetre
zaboravlja
zena
prsti
listopadu
devi
opremom
zrakoplov
Sur
pako
##berete
dvostruko
dokazano
450
braće
okolici
uradili
povezi
##snuti
uhva
Bee
uništiti
zimi
nerijetko
egzo
zadovoljna
školskog
uvrije
GI
Geograf
Intere
afri
Juven
boža
nastupi
##tinja
stekli
dokumentacija
##ĆU
znanstvenika
Mladost
direktorica
osigurao
fokus
drugome
Patrijar
performanse
obećao
puteva
putova
kliza
mladić
spremno
uce
image
službama
##hta
Priva
##haristi
##BOR
akademski
Holan
##ntnog
##reva
režiji
rečenica
##komje
nastavnici
kapetan
##vke
##ljavanje
religije
promijenio
divlje
zemljom
golu
##sec
uobičajeno
Dalmaciji
Post
Predsjednica
##LL
Day
sankcije
Podgorici
Directory
utvrđivanje
pitali
##manima
stručnom
igrom
##netar
Cijene
Svetoga
Liver
blu
##га
sukobu
nalogu
Nadamo
primjeni
objedi
##rijeti
modernog
1942
vjerodo
Zrenja
Magi
##jalo
##čići
grijeh
trake
impre
silu
##bara
uposle
Princeton
dvaju
vodič
dat
spasio
415
bakterija
Lako
##rok
##lištu
Đuro
fr
##qui
primjere
Daljnjim
ratova
poručuje
##eld
pronalazi
menadžera
besplatna
prethodnom
računu
##dnjih
kreta
##kor
##hati
uživanje
Odjel
##arter
##sove
kompleksa
razmislja
##štenog
prince
##lagodi
HTV
koncertu
IM
nogometni
mašine
Russell
kladio
muški
dvojice
upoznavanje
kompleks
##vodno
Fudba
##tkri
##reta
mobilni
regulativom
vlastito
##čanje
wa
odvra
oteža
krenu
ukazao
##cnosti
duhovni
ovakvog
##dani
cjelini
##coma
##brana
##dici
##viću
zamjena
master
Gradskoj
smijemo
Instagra
doza
Kompanija
##pin
Gospe
European
obavljanja
##jnika
sumnjam
predati
proširenje
predviđena
odstupa
poslanici
##veri
IMA
##TIV
##čarka
promociji
##ea
##NIM
primijeniti
Goražde
sušti
izgraditi
##zon
profita
strukturi
##minu
borili
Koma
demokracije
naglaskom
mame
Primjerice
Dro
efekat
bazena
osmijeh
kalorija
1960
donijelo
radnu
West
##SCO
##govića
##tusa
##pna
naloga
sretno
župana
izlet
dogovorili
kocki
HEP
moguce
popularne
##tesa
##AAJ
izabrana
izloženi
kat
##neu
Pročitaj
Stranica
Dar
Presve
##sport
##luka
live
MP
Zanima
Očito
##cnost
ispitivanje
tekstovi
izdao
otkrivanje
inzisti
najlep
bitni
inovacija
Produ
##rce
ukratko
FK
stalni
odaz
AG
nacionalno
GW
implementi
likovnih
nit
Nemačke
šumi
prezentaciju
Pavlović
220
očuvanju
GDP
Poto
Jadranu
EK
brda
kvalitetnih
##fizi
dvorište
izdavanja
bitke
lim
činjenicom
Posto
Budimpe
dovo
ozbiljna
civilizacije
Konstanti
Huma
planete
propisane
##tics
kupe
Južne
Đurđe
Omogu
diplome
obrambe
Raj
ISO
Izjava
Uku
##licom
jedinstvena
iznosio
dno
Sunca
grijeha
koro
Govore
hajdu
cha
predmeti
miješa
prele
mehanizam
Crvene
vrhunske
napominje
boljim
suprugom
zvjez
##vremeni
unaprje
ekran
vrše
djelovanju
##eds
Posao
posete
zbirka
knjižnici
obalu
Unu
vjenčanja
članicama
Jadranka
bak
naplate
Posljednji
pomogla
momentu
nacionalnosti
kolonija
IPA
Krajem
MEDI
##ljkom
pranja
ruži
Bole
prenos
##lanka
Djela
apartman
konstruk
Libraries
seksa
poseduje
dri
istraga
proglasio
poba
svrsta
spavaće
diskriminacije
molitvu
##cked
subota
kazneno
##grave
Gov
strategiju
Bojan
##ration
odredbi
ramena
podvr
##žniji
brojke
namjeru
spremnost
tipko
##wnlo
slikar
patro
uprili
papiru
Vrba
##žju
pregovorima
nedu
Mun
njezino
posvetiti
proti
smart
Dnevni
##ženjem
kvadrata
rang
Saveta
okusa
##yja
Nina
gradnja
oslika
##dat
osnu
osećaj
##nosimo
ljetne
uputili
##žemo
##lat
nastoje
transfer
galerija
Filozofskog
upozorenja
proše
Tramp
##kaži
izmis
poslom
štan
Šeše
Rock
nestabi
##novcu
zabilježen
##disci
Nacionalne
nadje
##vik
potvrditi
brenda
inspiri
budućih
UEFA
##ptu
##pata
OE
240
ulju
stambene
##dovao
Epi
ovogodišnje
sudova
vrhunac
delom
njo
uložiti
1974
Fro
ekološki
Božo
##list
obre
obračun
rukomet
internetskim
##bnim
Big
ravnopravnost
stajališta
##sniku
pozdravio
pravnog
nastavila
pokazatelj
Voza
obuhvati
stipendije
plemena
uređajima
511
industriju
Stepi
dozvoljava
##šuje
Rom
ekstremi
##nari
najva
Austro
sljedećem
poznavanje
instituciona
##him
automobilu
Kragujevcu
fiks
domaća
Zavr
pažnja
UCB
školovanje
##civo
temperaturi
bezbedno
nutri
beskra
Dor
val
Max
sukobi
Rođen
Harper
opada
razumijevanja
utrci
pokretu
posledice
sportskog
igračke
smanjuju
##teni
zavo
suđenja
formalno
newsletter
potpisuje
spektak
izvešta
natpis
naklo
žur
doslje
prosta
mestima
kriva
Podrav
Men
čist
Lege
praćenja
Life
##čanin
nacionalnoj
##taciji
djetinjstva
##Pubs
GovPubs
kuhinju
wikipedia
pošteno
##vjelo
ved
stekla
dnevna
Boro
kuci
HSP
Ista
reakciju
Sjeve
bivša
##ličina
dijeta
##41
reprezentativac
Splitsko
##ženost
tražila
Četiri
King
značiti
Manchester
Otvori
OBA
cvijeća
Jere
naglasila
Edi
Ume
OV
##cara
spora
sram
nesmeta
##discipli
prenijeti
##drić
bivših
##dljivo
izazovima
Ferra
Ideja
potpuni
kune
vodama
časopisu
referenduma
godišnjem
##rijem
upale
Kontakti
akademija
sha
##ле
##snija
kažemo
mosto
Ravna
školovanja
##millan
odabiru
upoznaju
Zdravlje
pjevačica
haljine
Srbijom
spoljnih
##lorado
1978
Macmillan
ukida
rasti
Gornji
drugdje
##štenjem
lov
##lirati
planovi
##zirane
dal
klasa
kažeš
hitne
odigrati
Komšić
Potpuno
poljoprivredne
ćelija
Osigu
objava
imigra
proizvodu
sednici
cro
elektra
pozvati
poštovanja
prospe
čitavog
##hranje
lopta
Vita
koronavirusom
centrima
##JEDNI
rež
##nesu
Korču
taksi
plije
kulturna
Srebrenica
Crnu
čekam
izašla
Jane
univerziteta
sira
tablete
formatu
reka
##lnije
završni
Arhiva
tiču
Bogda
##zako
Novu
loših
instrumenta
čokolade
žalbe
uravnote
pacijent
1983
topline
meka
maloj
pokroviteljstvom
bene
nuspo
##eeee
##CG
podnio
tvrdnja
Zapada
novčane
pristupu
sporo
protje
Analiza
buke
##hama
reviews
ekonomiju
kari
Cr
Ken
signal
istaknu
ambijent
monti
zajedničkih
##toni
jedinicama
savjeti
##ćenjem
ozljeda
ventila
odbranu
##47
Vojske
osnovao
Makedoniji
Talija
##jici
struja
Snje
##zinu
Žar
##ZNA
sačuvati
poplava
odgaja
inse
Kovač
brži
Najpo
usprkos
ostr
Janković
bloga
Roman
Arse
##mcima
vlak
##čici
medvje
##tvori
konfigura
amo
satelit
##vniji
uključena
##tti
nameće
vest
okolo
pripremaju
oblastima
##telu
Cve
osigurala
##arch
##kupa
##rivanje
SNSD
##stavljena
rješava
razredu
dječak
##pisao
Pošaljite
otima
ovakvu
vazduha
goran
Preu
odličnu
dista
##stička
##46
##lema
pogreške
vožnji
tel
ishod
rudar
##gorske
pozdravlja
tražimo
strankama
Paki
Godina
UV
nerazu
##lizacijom
Piro
saveta
Internetu
sjemen
vozilom
##ĐE
##goni
##slova
Medve
Njih
albumu
Recimo
baterija
QU
sustavom
inovacije
budala
##las
Siste
##nue
neforma
Evropu
Svjetske
Akcija
covje
##plja
Partizana
##meo
minus
10000
osnivača
Thom
stadiona
fizika
Jese
Min
Srđa
usled
licima
Chelsea
primjenji
životnog
Palgrave
dobitnik
švica
sledeći
ego
Bitno
odse
##žića
Zahtjev
svjetlost
granicama
jun
ukus
Manasti
poznatim
##STRA
##ју
obrazovnih
pope
diser
##zorima
popraviti
HU
proceduru
povreda
siromaštva
kombinaciju
decenije
Indija
115
ani
Visoko
elektroničke
slijedeće
otkako
elementima
nese
Trebalo
nadmeta
Sja
ije
računovod
shvata
svjedoci
zadnjeg
zastava
pokrenut
mons
izasla
##ranić
ambasador
običaj
pohranu
uređena
Mamić
zastave
Šimu
##pci
##RD
Meh
redoviti
Rješenje
Pavle
##ničkom
ispis
Veći
ocu
Gal
balko
##NT
prosu
mor
farmaceut
parfe
Encyclop
##2166
Nastavlja
fizičkog
glupost
domolju
kaznenog
željama
književni
##lskim
Koristimo
odabira
namještaja
najgori
potpredse
##JO
##stika
##sy
kamp
aktiva
ratnog
svetlo
##CAAJ
Tar
##kupi
maksimu
##ntnom
ostaci
odr
razmjenu
Kolinda
##EC
##AACAAJ
stupnja
kuda
inace
Ek
##goj
Ostale
zanimaju
Andrea
postavkama
proizlazi
platformi
VII
vježbi
culture
krenulo
Ig
društvena
svetom
##lniji
Horvat
Vojvodini
Encyclopæ
povezanih
##gAACAAJ
svježi
pedeset
Proce
dama
ogromna
urediti
konstrukcije
doprinijeti
Dragu
##dira
pilot
Encyclopædia
bet
narodi
namjere
hoću
agresije
Jezi
orma
ponos
stručnu
biblioteka
osjetlji
arhiva
podmi
luku
##čimo
komunikaciji
Stručnjaci
izvoza
flu
Dražen
odrasli
103
Course
##AAI
wel
##šinu
autorica
Rat
Stipe
##žoj
360
staklo
tribu
hvata
posebni
knjiža
daljinu
pom
princip
##ćivanje
preuzme
teori
veruje
##ljci
##sting
zave
Franci
brašna
nor
bliži
zaboravio
Ran
##stanak
##čao
Stanković
menadžment
Bibliote
sreć
Muslima
najvećem
Ultra
realnost
##AAIAAJ
respira
progu
dozi
srednjovjeko
uplate
Juri
Podr
gene
Hal
nijanse
Hrvatskoga
PMI
Kirk
Stanje
##ravaju
##QAAIAAJ
Nas
Siniša
Gold
reprezentativ
1968
propagan
Uskrs
kone
masovno
šibe
bosanskohercegova
##mbu
##rile
##now
##ziranje
Mani
izbija
nacionalnom
zaradi
snimio
Svjetskom
Imaju
postizanje
Naja
siječnju
Studio
bruto
bomba
tamno
vrijede
Najvaž
dohodak
sjedištem
Jedinstve
##čenjima
Svake
funkcioniranje
oprede
znanjem
MJE
##kije
životnih
diskre
zabrana
leti
##ljević
zamjenu
jeftinije
poslanik
pretrage
##zanti
štite
srpnju
Sporazum
Africi
Prak
singl
trećim
angažman
obavještaj
izašli
dešavanja
primjeraka
grane
LGB
##varu
##kreve
direktori
zima
prijetnje
Hrvatskih
##bira
prinu
Kije
izabrani
stomato
oružjem
uputiti
Pule
tvore
plavu
##uth
zajedničku
promicanje
spekta
Eduka
starija
dragocje
pati
odbojka
diri
obrnuto
spominju
##ncije
postale
konkursa
Zbi
stambenih
vođe
pronašla
zapovjednik
##hh
policy
produk
senior
##nial
zlatne
nezavisnosti
četvoro
osjećaje
##zga
vozači
Mira
kreiranje
klup
jabuke
prethodni
##mirala
školskih
Mjesec
NOVO
Osni
Događa
ubojstvo
Jelači
Jakov
Tiho
krov
željela
Sajam
##pen
ključna
##dd
zračne
struka
Prido
##hiju
##km
bitka
##sus
##sovi
Konzu
##kus
Zastup
nadopu
posudu
##ek
title
jeli
podre
privatnost
##ricanje
glago
ponešto
##ravanje
branio
propisuje
lijeve
telefonom
##stičkog
Dalmati
##bovima
spambo
Njemačku
posljedicama
zaključka
sudski
BEZ
doneo
Državnog
##nstvu
izbjeglice
najmanju
Pogla
učesnici
##ји
regionalnog
urn
religio
verba
tribina
vođenja
količinama
Savjeta
Nena
##stanku
unapred
alergi
bavio
Županije
May
jedinstvo
##kate
životnu
Ivanić
znanstvena
MLA
namjene
##njača
Mnoge
pokusa
dži
prokle
##planta
GDPR
gospodine
privatizacije
##CIONAL
retko
milost
Konji
##291
##ameri
Meta
##lata
Osobno
poduzeće
pretjerano
zagrebačke
trajanje
EURO
##vedeni
Burton
Davi
Prizna
AL
rješavanja
potraživanja
umirovljenika
unutrašnje
kreativnost
viška
kraji
energetski
svjesno
organizirali
kontrover
##NC
vidjelo
##para
procjenu
margina
zaboravili
##kovo
##Hz
##rela
prilagodi
##HD
retori
oklo
uvjerenjima
lijekovi
postavljene
kolekciju
ei
zdravstvenim
zajednička
prijetnja
prazno
neposred
##licama
prostra
istorija
izabrali
povjerenstvo
mašina
##esto
##NOST
vojnu
tradiciji
kontaktirajte
led
prizemlju
##jane
stavljaju
posjetiteljima
svetski
majci
##bljenje
unese
evropskim
UD
##ranti
Kal
manju
pruži
uživali
najlak
##udo
Loši
prihvatate
pozitivna
WC
112
Berlin
##ctiona
Ada
elektronske
Marijan
##toma
konver
BB
##sets
hranji
dolaskom
friži
Data
##ljavaju
institut
gospodarstvu
tvornice
neodre
Christi
invalid
svećenik
Start
postojao
osniva
pamu
dame
kamate
spasa
zelena
slavio
alternativa
ubili
##trom
čitave
POLI
prehla
BRA
Karađ
##ENJE
tekući
##ntnu
Turističke
scenarij
snimak
drugačija
konzuma
Voditelj
strateški
Adria
saglasnost
saopštio
##kto
##njenu
redatelja
##linom
Levy
##vest
autobus
humanitarne
drzava
##zona
gomi
pripo
matu
podrijetla
Televi
kafe
planiranja
fenomen
predaju
ljekovi
988
predao
amater
Radionica
bukva
osobnog
toa
iskoristili
odstra
oksi
dugoročno
aero
mokra
zaradio
predlaga
operaciju
Odu
silom
zagor
efekt
Antonio
nogometnog
okrenuti
##hy
segmentu
podiže
veljači
odšte
sposoban
klupe
vece
godišnjak
neprofi
naučio
Slavko
Mon
lose
tortu
žirija
klanja
volontera
uzela
##ntonu
##bove
SVO
profilu
vile
pritu
mislima
175
##ML
crti
Mozda
izraziti
zapadno
Rama
univerzitet
igranje
natječaju
##83
antioksi
##chen
internetskih
kano
slovo
emisiju
oblici
5000
izvještaja
Obzirom
Ustavni
točki
skokova
usvajanje
Beli
vrtiću
Tuđmana
prosincu
količini
##tte
spisa
zanimljivosti
branitelji
nećeš
##ljama
igrala
nakit
Ea
potvrđuju
podigao
zaboravi
vruće
predmetima
pošaljite
##čnica
građevinar
srpsku
Statuta
230
##novim
Nemoj
dečko
Biography
gradska
##lizirati
##cipi
Bogoro
trajao
Brodu
##lness
kolod
prostorno
course
##čnice
omiljene
mjerenja
sadašnji
učinkovito
uspjelo
povezano
kršenja
Foru
karika
Jedina
##nkom
Modri
Kruše
##hahahaha
##pljenje
povijesni
##вни
napretka
##džbu
pristanak
##ini
procesi
Rekla
dna
Žele
cenzu
Babić
slovenski
Ostalo
utrku
misljenje
##čište
uho
Zajednice
Zakla
##đem
spas
stavila
metodama
uređenju
Filozofski
vere
poslovno
pobijedili
Afrike
najviši
koncerti
vozilima
nezavisnost
##wel
iskri
interne
mobilnih
podršci
poslodavac
iznese
MZ
pauze
kompjuter
napadača
pravda
##ele
opozicije
okupili
dostava
jednostavne
reklame
očekivali
tableta
zahtijevaju
dokle
porijekla
Šibeniku
Atlanti
pravdu
ispunjavaju
Prora
dotak
reperto
čekao
pregovori
brojeve
STE
uvjeriti
Mađarskoj
instalacija
spašavanja
Defi
##yon
mjerenje
interesi
edi
pedija
##cit
##ceni
uzajam
procesima
##sent
boj
present
saboru
win
bolova
proširiti
Gradskom
##laženja
Isku
ugovorom
privo
reklam
projektnih
##ener
Zvezda
tlu
Rece
prepoznali
Emi
otklanja
rijetkih
kremu
građevinske
uređaju
Sco
##strva
Obave
pobijedila
ljudskom
dozu
služio
zadnjem
##vljava
glumci
##piše
natjecatelja
##livu
vanred
prijateljstvo
##ку
Kosta
ludi
statusu
uvu
##204
Mediji
Cena
vojna
hoćeš
pozadini
ostvare
zma
nalik
##cipa
modern
obrađuju
zračenja
eno
jabuka
poga
opremljen
vaterpo
propisi
##tehnike
Najčešće
rečenice
najvažnija
Maria
efikasno
tromjese
znakovi
javite
Telecoma
olakšava
##ČKA
hle
objavljivanje
WW
srednjem
Slaven
##sso
KRI
##228
imenovan
kutija
##terima
prihvatila
putuje
dodjeljuje
tvog
Kontro
sportova
iznenada
kvalifikacije
umor
čijim
poskup
obrana
snu
stao
Šar
odvjetnik
referent
aktualne
čestitke
isplate
Matice
PRED
razrije
zaraditi
Voda
razlikovati
ostvarivanja
integracija
seta
policajci
nošenje
policijskih
povećan
digitalne
indirek
0815
adap
natjecatelj
##tivši
##DAR
neophodna
zastupnici
##kori
##TRO
##vljenim
##EE
##noć
ing
otkrića
menstru
obnova
ovogodišnjem
ovce
STU
vrijednostima
##61
Poljske
supsta
Ukratko
Izraela
nadma
polaznici
zvao
pedo
kuli
odob
konflik
##glas
očekivao
najteže
Bil
sjajna
1975
prekomje
1969
izgrađena
pojedinac
Administrativna
Resto
##958
junio
nikakvog
pojasnio
mafija
umire
##rtav
iOS
free
lud
##237
7th
##pravno
zamjenika
365
Doduše
sistemi
Galaxy
##čanj
##pir
intri
blagoslov
prihvaćate
zagorske
Organizacija
Vidim
##stave
teče
medijskih
civili
Znanstve
dječji
poredak
propisano
postupno
Planira
veb
nasa
britannica
vrijeđanja
##UPA
1943
##fru
Vir
legendar
prilikama
resurse
Svatko
policajac
Analy
sače
poprav
society
narodna
smanjenju
Natjeca
##ben
Ruske
umrla
zbora
napisano
ponoći
Tuži
hormo
sposobni
Govoreći
izlu
Čeka
usavršavanje
##ćenost
kupce
##nističke
##ntropo
večeru
išlo
Cal
zakonske
Ugovora
tenden
Metković
inici
docs
necu
tobo
štetnih
##ldemokra
viđa
Makedonija
samoga
##hua
Augu
poglavlje
vertika
petnaest
specijalne
Kape
Vatroga
potencijalno
prehranu
##ORH
desnom
spomenuo
medicinu
itko
dobile
uspješne
dobrodo
##ctionary
far
Deve
Obrazo
ograničen
osnivanju
POD
bijelo
nei
protivnik
Jesi
##landu
kriterijima
visinu
Očekuje
bbc
mjeru
##gari
cestu
dočekali
gladi
komentirao
##stem
redovne
Karamarko
Imo
Vic
hirur
XII
tražeći
makro
lečenje
hteo
Valjda
##lesa
prostitu
##lazaka
poslala
kuca
krvo
uveli
Završe
teškom
lek
unapređenja
pše
economic
auti
Ukupna
giga
nestrp
Fotografije
izazvala
Hum
odliko
postotak
sunče
##zirano
vatrogasa
ZDRA
Ilić
Ozna
identifici
Svr
kapsu
lekara
najjači
dobavljača
Korisnik
ILI
zagla
doce
totali
kršenje
instrument
Božja
mil
istok
pratili
non
##dona
okrugu
metal
usvojen
Moskva
suvereni
posluži
ruše
finansijske
are
Pročitajte
kutije
doživljava
smrću
##novanje
1961
Trener
##spita
##beli
križe
leka
zabrinutost
tvom
##čvr
Poduze
tužbe
terminu
tlak
odlaga
##NICI
osloboditi
pomak
Marijana
##bja
braniteljima
##gradili
Posu
sadržavati
ekonomska
savjetuje
1545
##idi
ruže
Karlovac
dodaju
četvor
Jugoslavija
Kolek
eksplozi
bilatera
Pokaza
licenci
Nov
Mia
tribine
upisuje
BRO
odreda
SDS
gasa
realnom
Lisi
Islam
koeficije
Odaberite
youtube
važnim
Mišlje
##tip
ukr
izražava
usavršavanja
postavljeni
Sherman
prodao
dokumentu
##čaru
Građe
iznenađenja
##kiju
UNESCO
monogra
##comes
##uty
gradskoj
povod
Nevje
opasne
Demo
##lnoga
vladajuće
Prihvati
Vran
svemira
##SKOJ
fami
evaku
završilo
Pridobljeno
tehnološki
stiglo
funti
Niša
isplatu
Isa
napisali
upozorenje
obole
##tinje
oset
sustavi
napora
1967
protekla
Koncert
otkrivaju
smatrao
1403
poznaju
Duh
mx
Yu
pokrajine
egi
svađa
renovi
ambicio
##t1
biography
##bona
vozilu
serti
Poljskoj
stolice
rupa
Slavonski
modni
Instituto
pozvala
pogledaj
sljedeću
obradi
republike
Ker
depart
vojsci
Th
preobra
progovo
prihodi
odboj
pamćenje
##šnica
učenju
Peren
pogona
Selo
nekadašnji
Gradski
##leu
Švajca
Povjerenstvo
najnovijim
Institution
##plasi
ŠTO
gmail
##bljena
Bos
Oca
navedenom
Step
Brčko
eksploa
Šan
pjesmom
Donald
nestao
##čla
##checked
srpskohrvatski
kolovozu
gledanje
##obi
lokacijama
##arterly
##VY
sveukup
Lar
turbo
nosila
EBchecked
pti
nadležni
raspro
proizvodnjom
menadžer
Pritisnite
Ye
metropo
pijan
šansa
neprihvat
kamio
klau
##xp
##uta
Tech
magistar
polovici
manjka
dele
##ratima
##via
proko
ponajviše
encyclo
##ntions
##ure
zabranu
Greenwood
generi
Adresa
Božića
plemeni
mlađih
##đom
imovina
°C
mrzi
izma
dopuna
mami
organizirao
zahvata
Srebrenice
grijanja
sadašnje
policajaca
ruskom
AC
##97
Cje
orto
Dolazi
polaganja
ubijeno
razgovori
Mađarska
Metohiji
tajnu
asistent
linka
##ме
Ovih
prodavao
Tel
##djen
Simon
Đurić
gora
radiš
savet
Zagor
kisi
Spome
strijelac
ponuđa
izbega
Unutar
slaga
zatvorena
##seća
viša
vjeronau
##gira
##ZX
##čavati
HNL
Vida
Sirije
Doktor
Miche
##čaji
Prodaja
bankama
treti
kadar
prestane
##mentom
arbitra
određivanje
encyclopedia
smjernice
Način
rub
subven
Brooki
##đujući
homoseksual
GE
članstva
hram
izgovara
uživajte
olakšati
Interneta
Pogledaj
oli
Neven
Nebojša
dodavši
fun
##puta
vrat
##keta
uskra
Mexican
SRP
nesvje
čuju
Turci
об
Prikaži
##šnjava
ludo
volji
promeni
assets
londo
ukupna
jednoglasno
pravac
##rP
Dia
čitam
RIJE
nabavi
aktivne
četvrtka
##sjednik
lobi
hrabri
stm
blje
raspa
moralnim
počast
nastupio
Brookings
Smatram
##ČKO
uzo
Nemačkoj
grešku
očekujem
Sovjet
uplo
drame
при
date
prevencije
nastavka
##pustite
Jean
varijanta
Njemu
vijestima
##TJE
načini
Izve
zdravstvenu
praviti
najkra
solo
Washington
čuvanje
nečemu
objasnila
Izvješće
##ística
računalu
svugdje
prepoznaje
dogovoriti
postupci
##tene
pokazale
PMID
komadi
Predavanje
pisaca
##šenim
profiles
Knjige
postojeći
razinama
Brazil
##nome
izričito
uniju
Estad
Detalj
##geri
uzroka
##SPO
Estadística
Golu
karton
prijavlji
##zba
Mercedes
prikazani
Široki
pobedu
##FO
željeni
##binama
Nataša
Deeds
Lesko
Dalje
intervencija
točaka
efikasnosti
igrališta
outcomes
sastavlja
Geografía
Kirkwood
izveštaj
Materija
Nemačka
conquest
Uto
Oruža
Read
opti
izjavama
inegi
Krauze
vesla
colorado
##meda
zaraženih
Beez
junaka
zimske
##2199
donositi
##are
##4311
financijska
bara
##9167
Pretpostavlja
12050
Bistri
upućen
organizirala
mitropo
SLA
econ
intentions
##6726
Karadžić
##2588
donacija
wilson
soka
razdvaja
popularnost
Perennial
##2917
##3377
lepe
pozornici
imunitet
##valua
Solu
##lsku
ponosan
americas
9888
personalizira
stavova
Sjedinjenim
koncentri
Cookie
imenima
SM
##jaka
trećine
mexican
centimetara
Medite
##pubs
konfigu
razmjene
##jena
domovinu
Ljubljani
SPC
Akademije
navedena
upala
gwu
qst
188496
##iDP
Bala
##ioC
##quarterly
87237
Beezley
donesena
##xrP
140396
##blibraries
slevy
govpubs
157958
iiep
ucblibraries
117204
informality
092917
511228
1205074
379167
Amt1
##752199
##MeVY
QUxrP
0815752199
15456726
##ZXMeVY
wilsonquarterly
98882166
1884964311
1403962588
117204365
Amt1ZXMeVY
QUxrPgAACAAJ
Amt1ZXMeVYMC
Qxp
kreiranja
GWiDP
1579583377
GWiDPioC
trendove
štaba
prostornog
domova
modera
budućeg
nastali
domovine
zaštitni
zahtjevi
ravni
poslovna
dodjele
njezinim
maju
vlastima
najljepših
sustavima
naučno
plje
Ekipa
Of
Semina
krom
udruženje
##vil
limuna
uljem
Gorana
ustroj
najsku
manastir
povećanju
Pariz
izvršio
polufinalu
Njemački
Pona
ciljevima
##ija
Dovoljno
sprovođenje
smija
pjesnik
PRIJE
vešta
zanimljivi
nepovolj
nasla
Mil
##listička
States
zarada
Osječko
##deni
srednja
mogućim
##vrijeme
posvetio
##ljivanja
gove
muške
izabrao
mladu
navijačima
upravljati
pomenuti
obveznika
pesma
izazivaju
tekuće
Afganista
upravljanju
skida
omladine
crnog
Santa
Tanju
Američka
kraće
nami
Svjedo
##VANJE
umjetnički
##kea
djelovanjem
ponajprije
brodu
nastanak
Trans
Srce
klijente
mrtav
beto
najnoviji
##mode
kompletan
znanstvenim
kontekst
restruktu
Karta
pravca
Crveni
uzvrati
Odre
Francuski
čujem
privući
recikli
medij
navigaciju
najljepše
Studentski
Jen
supruge
##JTE
prioriteta
ка
##TOR
vila
polovine
Knjiže
punjenje
srećom
Ji
##čicama
kompanijama
Obično
upoznala
Jele
težina
nečega
##štanja
baha
##UAQAAIAAJ
Guide
suprugu
##bilo
Naziv
gledala
neslužbe
odgađa
podigne
##burga
##kovac
Osobe
Thomp
mozemo
izraza
ikakvog
podjele
##AAAA
zeli
Baki
GT
Pobje
##brije
Ugo
lažne
stanici
##hidra
generalno
globalne
slab
negativan
izmjeni
majstor
rupe
ravnodu
sportska
Litur
Možeš
Znamo
kazalištu
najavljeno
##vojaka
carstva
KBC
ustima
nate
Allaho
pomoglo
Engleskoj
aktivnih
najvise
Gordana
prihvatlji
gardero
##tran
uspješna
oneči
previse
triba
pojas
statistike
narednim
njemačkom
organiziran
predsjednice
KB
Albanije
ef
uzgaja
lahko
##strano
##го
Skoči
neodo
sjećanje
nedjeljom
srednjoškol
fabrike
funkcioniše
profesionalnih
Lud
Proba
haljina
##done
rana
Zvu
radit
nositelj
##šenog
meteoro
društvima
Danijel
Vikipedija
##lian
uzrokovati
Veliku
prethodnu
demograf
okrugli
traka
razve
klavi
normalna
kći
##gene
gripe
odraditi
rekoh
Ajde
Sela
omogućila
zahvaliti
likovne
##jmove
##čnicima
zvati
suse
Popula
EN
Obre
spola
bravo
pokušala
nameta
gornjem
##lec
fini
Optu
potpisivanja
krivu
Razgovara
##jen
##peut
Stranice
okr
VIŠE
čitavu
administracije
Nacionalna
kava
Ble
austra
urednika
ženskog
Odlukom
Mirjana
gledano
željom
##ingera
momci
##cila
odabrali
narodima
elimini
magazina
Sofa
sudije
rasu
PRIJA
poželjno
Osman
prevenciju
eventualne
piju
osvajanje
segment
##provi
##DIO
župi
vršiti
hrabrost
središta
cigareta
gađa
##dji
znakove
nalaz
Twit
slijedeći
##plicira
producent
zeleno
Audi
natjecanjima
Opće
utvrđivanja
NACIONAL
elasti
osobnu
Mü
UZ
##32
##VC
umanji
atom
posluje
spremi
Priro
sjeverno
prepreke
podloga
##86
Psiho
Jun
ukazi
pretragu
kurs
daljnji
##tok
##rovića
NASA
SVA
pomoc
raspisi
naručiti
prepoznaju
##vskih
poručuju
teški
razme
titule
ća
razmišljaju
uveo
oplo
maltre
prijedlogu
stradanja
##ćenu
Krea
tumači
studiji
propaga
utakmicama
znače
Vukovarsko
zaslužuju
memorije
izgrađen
##renost
HVO
prag
Uda
omje
medicinski
domovini
nastavno
Drugom
potpisati
nadzorom
sitne
Maka
stop
vidljiva
pozive
stvaralaštva
bakterije
indeks
odem
##pine
Rusijom
magnet
koso
##ljeti
nezadovoljstvo
##lile
nelega
##sia
ugovori
ogor
prijateljica
Wo
šesna
Link
razja
UFC
poretka
Vašim
učiteljica
##dovali
navodeći
prisustvovao
epo
prošloj
SL
##tcima
Ljubu
Datum
umanje
časti
Poznato
povukao
zaposlene
hercegova
pisca
službenog
domena
kineski
bala
pritisnite
bojom
Sis
##čjeg
dam
1976
##VIJE
sjeme
središnje
kamata
rođeni
dugme
lanac
##savljević
##lovu
napomene
hl
kamiona
filmskih
plava
##cr
Mobi
Upozo
ljuti
virusom
zadovoljstva
neverova
pohranje
ustvrdio
narodnih
pisalo
##funk
turske
Zvani
snimljen
voljela
sede
##verti
umjetničke
koliki
otpušta
Sed
inje
##hr
zapošljava
mamu
Duho
gornji
pera
Ubrzo
putevima
podizanja
Treće
majstora
hrama
znanstvenog
osa
Ivane
sekunda
strojar
požu
čaja
##feru
party
fik
Zabo
zasje
##ljati
##šin
slaba
obrađuje
davao
Eliza
odgovoru
##laj
Općini
##meti
pretre
pametnih
konstrukcija
Njegove
groblja
karo
smjesu
##šćeni
Primo
kategori
orkestar
prodavati
1973
automobili
##dinira
odgoju
stolom
nagađa
Goj
strast
dvje
Bal
blok
##reći
istr
##mela
prisutnost
francuske
izbjegavati
ličnost
##rusa
fizičkih
animi
Ander
trenutaka
oporbe
brazi
Karađorđe
Đorđević
dostavi
prikupili
gusto
Ava
popularna
upore
modne
učešća
uspostaviti
vodeće
##cnu
počevši
propast
Savjet
poci
Ostojić
polaganje
##doru
ultrazvu
sankcija
Oti
zahvalnost
Moze
##rniku
Nedosta
kraljica
Glavnog
##ну
ravnateljica
dijelimo
skupinama
dostupno
##NET
obilazak
negativnih
inva
Stoj
subotom
pozvali
stručnjake
##dnicu
odvod
House
pjesmi
zalu
kulturnim
tvojim
Law
omogućeno
smijeh
blagi
iskustvu
##tibi
##nziju
postaja
##rkava
##loškoj
prijavio
##riraju
rati
afirma
##kovu
Galerija
zade
##mbi
polovini
Nin
memorija
tenis
raspravljati
ста
krumpi
##plju
Prihvaćam
glasati
SRE
najava
kažete
1977
garancija
svjedok
kriterije
##dicu
Australiji
##fiko
vrijedna
primjedbe
histo
Cri
brdo
zivota
kanad
istoka
svojega
750
##beri
jul
##де
pruge
##bon
HIV
podmor
Državama
kulturnom
Takve
radionicama
telefonski
SSSR
odjelu
Pan
čekali
Zaključak
Japana
postavljanja
ovakvo
Krle
mješo
Domi
Lisa
poroda
##stine
##Sport
Reč
decenijama
borila
srda
intervjua
otvorenim
DC
Napre
idejama
propasti
##IL
najpoznatiji
partnerom
naravi
Dam
opisi
prekršaja
Majsto
večernjim
uta
moti
pomagala
aktivna
fronta
najpopularnijih
jedinstvenu
osjetila
sjajne
ljubomo
čelo
##vicama
registru
polemi
zahvalnosti
svetskom
pripadnicima
tekućine
Dizajn
sljedećeg
probati
zahtjevu
Linu
##zirali
digitalni
stajati
yo
##mjerno
SLU
##toka
hoćete
trga
Matić
Bugarske
imajući
aerodro
kolica
impu
postigla
Međunarodne
izrađen
izbornog
ostvaren
literature
##zava
turski
vek
facebook
##kg
suštini
inteligencije
doživo
dragovo
Željezni
vatrogasci
##pol
vjerske
Istraživanja
grla
punolje
udrugama
Allaha
vuče
stepena
##gement
mačke
##cjenji
tekstovima
vlastitoj
Ivanović
##ćani
utemelji
Će
zatvoren
tkani
kupovati
produže
bicikl
Vatre
display
##BRA
Bunde
zaštitne
posjedu
Pripa
Iskoristi
##timan
##ov
HRVATSKA
uspela
putuju
##vedeno
računara
vlasnicima
Mont
gimnazija
AS
njezinih
modelima
ozra
kompletno
Ameriku
Lati
##tha
##venim
##GLE
okupio
##gradi
decom
Out
moderno
bajke
##ksom
Moto
partnerstva
palesti
Bora
vijeću
Čakovec
zdravog
razumijevanju
Zagrebačka
susjeda
udobnost
olakša
rumu
neizbje
financije
uvjek
zamišlja
Davida
fren
dosadašnji
kugla
produce
provođenja
obiteljski
zonu
preglednika
suditi
njome
neophodne
Jed
promijeni
##štenim
primene
manipula
Zenici
bogatstva
##tkad
Potpred
Broda
Scie
bogato
##mons
duplo
maneke
zaštićeni
##xe
##žaka
staža
##GOV
dočekati
##šnost
ponudom
davne
najkvalite
##jca
ugljiko
izraditi
ODLU
Isusu
Šibenika
razlici
##lističkog
topla
sple
stroj
##rcu
##ćujemo
##85
Times
ratnim
##landa
sudbine
građanin
naizgled
disk
##py
mile
FIFA
naprotiv
Najbolja
ICT
prahu
baru
Briselu
krugova
prosječna
bankro
Tvor
nijansi
preživjeti
dostojanstvo
##gnut
##wnload
čara
Muzeju
Božju
osjećate
smanjio
##raf
##MAN
iznio
sljedeća
##stein
Susret
##nora
##dum
konkurencija
Tem
poručila
Sea
objektivno
##ktivan
kolika
formiranja
##ire
čekanja
Count
ab
sigurnošću
objavljenih
glasanje
posljednjim
modula
kafu
stožera
umjetnik
##nena
članci
izgledu
dizajnom
poboljšali
dioni
slučajevi
Kralja
zidu
Nico
najvećoj
priloga
odlučite
Ronaldo
##čev
jasne
porekla
Priče
dresu
##uda
romanu
organizirana
vl
Predlog
polovice
guver
destinacije
prihode
plastike
Adi
sever
Načelnik
Razgovor
zagrlja
razboj
RTV
čitalac
Word
donje
Antuna
##nostima
metar
profit
štrajk
miran
svodi
DNK
kućni
##liću
kvalitetnu
posade
intelige
salon
Radova
##stry
struci
Naslovna
Sedam
zdravstvena
financijsku
omiljeni
##bljen
materijalne
play
postavila
Manu
##šilo
muškarcima
savjesti
postignut
oldi
Erdogan
najb
ente
današnjih
aktuel
Zasto
pričao
utiču
uzdrža
ljeti
kućne
uređi
Histori
prikazana
varaž
drage
Norma
Donji
stotinjak
smeća
##ways
borac
diže
turističkog
doživjela
Postu
##69
čeli
##boju
dokazao
GODINA
vezama
##sane
slavili
slobodnom
##bića
zivotu
pobjeći
stranama
zaple
ishrane
blisko
Šef
Zlati
principa
najstari
Svetom
posjeduju
elektroničkim
Kažu
odgovorila
sportaša
pioni
mj
reagirati
Svima
voljeti
obični
ljepše
odvjetnika
##jsbu
pokažu
##phone
održanom
stupanja
znajući
pravnu
MAR
Telekom
##cak
kam
##vremene
Fal
trke
kompatibi
uštede
višestruko
bata
pitala
karcinoma
##novom
Boj
preuzela
disciplina
životnim
Benedi
Hitle
boljih
oldid
tik
##gnje
##tencije
##vače
Jak
ružiča
uh
razumiju
nalazila
Ome
ispuni
mentali
signala
Tome
prirodan
##đenosti
Elizabe
sjeda
##stana
Komple
privatna
uputila
glavnoj
Sne
lijepu
kazu
Ligu
Harry
##gnuo
Dimitrije
nea
rese
Abra
prethodnim
##šenjima
vitami
potencijalnih
ravnotežu
GRAD
dolazili
##lsko
##renjem
Arheo
ante
isključiti
materijalima
navikli
osvet
telu
diplomati
koraku
pamti
eteri
katastar
##rist
bijelog
Evanđe
izbegli
102
pomno
Kranj
Denis
stabla
samoza
publikom
mapi
zatvoriti
deri
Express
demonstri
vulka
punoj
usvojila
##bite
Kel
Primorsko
Španjolska
obrazovne
Gde
prijete
kondi
paso
BEOGRAD
##šući
##prema
prekrasan
provjeru
kompetencija
sredina
jedinici
##vatelja
parova
susreću
istražuje
dvaput
saopšteno
optuženi
uspješnog
Messi
zidova
poslovnu
rukovo
elite
bliski
prehrana
glazbi
Prijatelji
##fom
##SN
obavezna
sistemom
poljoprivrednog
uže
planom
Karlo
slabosti
##godišnjoj
Motor
istočno
tadašnji
Sandra
nesebi
prekid
gotov
razotkri
pitate
napao
##zdan
držite
Nogomet
##ljković
kasa
senzi
##ćevoj
znaka
ON
Kupo
opljačka
agenciji
hiljadu
Komentar
dobrovoljno
##slovi
DRUŠT
donji
pripremio
argument
čitaju
primjeru
astronom
Domovinskom
primjenom
Javne
lekar
##njskoj
##ČU
misu
Proizvodi
Love
Episko
zasi
najsla
majmu
##logical
##prijeko
##hranu
Dodajte
Prostor
Antun
##stepe
Zapre
procesui
razgovorima
sal
Kakve
poremećaj
zrna
Flori
##nomija
venča
lokalnu
##jića
jazz
kutak
ubistvo
krajnji
Jadrana
ovda
bezobra
dužini
Mou
ističući
##banje
EZ
Dunav
bombe
Upute
analizirati
zvali
EX
muško
Filipović
saglasnosti
čip
##Score
godišnju
argumenti
##bita
Mra
Stojanović
uzimajući
propušta
uspijeva
depresi
prisjeća
dah
svakodnevne
neovla
proračunu
107
koncerata
Američkih
potražiti
##venu
dogovoreno
ranji
setu
pružio
kode
pečenje
sluca
algori
HSL
all
Posebna
pominje
nadležno
snimku
žiri
steći
##čci
Nika
učestvovao
izveo
rodio
Dictionary
provedeno
intui
uništava
davanju
##KRE
atleti
konačni
Savrše
Miodra
Mladić
##ту
kandidatima
Polu
antropo
najznačajnijih
Business
atenta
prodajom
##čiju
narodom
Slobodno
##pča
najavljuju
Organizator
##ntske
Arti
##lop
Tat
ćelije
izvršenje
entiteta
Piše
tuš
Proto
##kret
oste
uspeha
saopštila
djetetom
tužbu
protest
Europsku
aneste
postojećim
Sukladno
pronađeno
##povac
dobo
Ovog
gledanja
Obilje
predviđen
koncentracije
HSLS
Noki
##tovano
zagrebačkoj
geode
Cy
udaljen
prebro
nastupili
mačka
##ID
Oz
propise
ostavljaju
ekološke
Takvi
tehnologijom
##VP
četvrta
povuče
mak
izvijestio
naslu
priko
Liverpo
uljep
ranog
##tnička
Ford
vremenske
Banjaluci
Časopis
##cionalni
usi
liječi
poteškoća
##ĐA
entitet
prigovor
sledi
šoka
četvrtog
poteškoće
zainteresovani
##redoto
##lgi
Modrić
obrasca
spoznaje
##redni
##ciono
spektakula
jave
##njake
gas
sustavno
snove
##ckog
najraz
činio
jedanput
igranja
trau
##filo
VU
jedinstvene
slom
##lnicima
Prisu
slava
osjetio
##sara
trgovinama
nastra
procjenjuje
priznaju
##rid
##се
dos
vrhunskih
aerodroma
suvla
tražim
mentalno
##tou
četki
statistika
gif
grešaka
pogotka
prometnih
razvrsta
##tnija
britanske
privredu
okupljanje
Borisa
sudske
Tijelo
##wo
pripremama
Ty
nogometaš
135
CO2
Obradović
atmosfere
nestala
##AS
nemački
smatrali
sastojci
Metohije
ava
kW
tehnologiji
horizonta
145
Port
konkure
protok
prena
Milica
voz
##31
gledi
128
Poljska
Den
krova
takti
podvi
SC
##rizam
##ćevu
skok
bukvalno
paradi
promijenila
pojedincima
femini
Upravljanje
tragedija
##sina
efikasnost
gomila
zatvaranje
nagi
region
Imaš
tijelom
kratkog
susreti
energetike
šetnju
razvio
Vlado
čestica
Jurja
ovakvom
trojica
obrazovni
Privred
Omla
##ite
kuriku
krvni
putovanju
informira
dopla
porastao
široke
skupšti
gospodarskih
datoteka
kupanje
Que
vječno
problemom
pisala
##ljuba
osvrnuo
ispitu
Organizatori
milo
divno
računati
kni
industrijske
##god
potpisivanje
gej
##rej
lopov
običan
glupa
pribor
##stija
##lizmu
Conti
obećanje
von
##bum
nesla
finansiranje
iskorišta
sudionicima
##Q6
pozove
ponovio
су
podnošenja
miša
Varaždinske
sitno
##ravanja
osobina
kance
prekršaj
supa
ravnopravnosti
ukupni
Sustav
##šnice
hdz
troše
primanje
punog
ljubitelji
suradnicima
servisu
torbi
Vranje
čašu
dogovara
##njujući
Prijavi
službena
Iznim
akademiji
konji
ado
najmlađe
##mijem
Stefanović
AF
##gata
##toksi
klijenta
terasa
##stike
Zapadu
Logi
idi
Iste
gitari
Daniel
stvarati
Napro
celokup
napadima
Županijskog
Rafa
ekonomsku
rijeku
Hasan
mladeži
Knežević
Saj
##34
zalaže
registraciju
##ckoj
##šje
zatvaranja
Dalić
pripadnik
izvrsno
zasniva
##misleno
opuštanje
čitatelja
Ulici
lea
seli
ozbiljnije
##pnih
upada
##zimanje
SVIJE
samopouzdanje
prosvete
produkcije
krvnih
nastupila
Zenica
##gate
starijim
jamči
##varati
obru
##kolo
Koriste
sponzora
maha
##мо
ljubazno
mrak
poznatom
ostataka
premijerno
prijavili
vanjskim
glazbenih
predstavljeni
fizičko
postrojbe
prijavljenih
##pcu
Narodnog
pobjegao
razrje
pripad
Bruxellesu
finansijski
umrijeti
pete
timova
figura
projekcije
književnika
smiley
znalo
dovrši
mobilnosti
kvalitetna
krugovima
definici
štednje
deseto
Kupu
naka
Pogled
##vićem
##lovac
obilježili
eksperimenti
povijesnih
VJE
kič
primila
slijediti
ZDRAV
stopu
glumca
prestanka
Uprkos
ugu
jubila
Sindikata
špe
Reu
##narod
adapta
Irana
##Q6AE
##ndan
##mad
upija
dizajne
obične
tehničkim
aerodrom
Vojvodina
Službene
Osoba
budžetu
viziju
##cili
endo
razmak
Jure
kina
žrtvo
slavlja
##Q6AEw
Sjedni
Journal
osmje
km²
print
kamion
Koreja
čekamo
širem
NVO
##žavajući
doci
plavi
Wolf
Nacrt
##kuli
portu
zači
nepred
zene
zaprije
povećao
pronađen
vezanim
Industri
nac
stvarni
NG
penziju
Odličan
Stručni
balkon
uslov
vozače
domovima
emigra
Koreje
gimnaziju
odličnim
Profi
Ivanu
prazan
##æe
sretne
drzave
##gula
vez
talenti
povlačenje
presre
junak
preza
Karo
Uživajte
prekinuti
uspješni
državljana
##BLI
evropski
mislis
dora
ekipom
Fizi
Hero
karijera
pitanjem
prekograni
ulasku
sprečava
Jagodi
Kontaktirajte
By
mostar
crnu
mrtva
pozivom
##terij
Creative
seri
##linama
diplomski
premalo
dodataka
pota
provinciji
prestao
trudnoći
##cca
Javnog
tridesetak
ljekar
##side
##vljenom
##hna
Avi
##fica
pokra
##šimo
Dječji
##beno
depresije
narode
Partner
prota
ola
##Q6AEwAA
urbanisti
učinka
izmišlje
Geogra
rop
Simo
##NIJE
##sata
ljestvici
Neću
uvoza
County
sljedbe
nikog
registracija
Viktor
savjetovanja
Profesor
nadaju
repu
složiti
tajku
Zvije
ćiri
Wha
##zimo
tone
Galeriji
izvana
##she
bolesni
bronča
Južnoj
ČI
daljem
usredoto
dubine
Državne
laka
selima
Pretra
citi
upro
suglasnosti
##tono
laže
Objavio
Deut
kaznenih
flash
pokrene
ribu
Vlasnik
##štaji
detek
spavati
##štar
obilježavanje
pig
odgovorne
čelnici
kriterija
Mel
paradaj
fascina
HV
##WS
faj
##LOG
kvalitetnog
proceduri
ruska
potresa
Ani
##sja
Srećom
imenovanju
preuzeli
Mona
nikakvo
Ug
##zit
miste
placa
1948
otka
upravnog
nemino
četvrtom
proglašena
zaključila
##STVA
primenu
teoriju
Bat
istje
Kanadi
Banka
šal
otpadnih
Sen
stručnjacima
##ljenoj
želeo
Situa
vijećnika
nogometaša
##lean
Poljoprivre
nosili
temeljnih
Duba
##pota
Višekru
izrađena
##unda
Vuković
kud
pričam
podržali
##rijer
Klasi
instrumenata
##87
dječjeg
zaposlenici
apsur
poboljšanju
Njima
##stencija
hije
čelnika
televiziju
jednak
jaki
evidencije
##kazujući
eska
tolerancije
Kole
devojke
##stavilo
##javu
B92
moderna
kostiju
dopušteno
pojavili
Sretan
napadi
POT
##án
ponašaju
poteza
Podrška
Ća
olu
onak
opasan
Ota
različito
jaha
KP
Frances
donjem
molitva
##pam
muska
postupanje
egzisten
Višekruna
Tou
##zra
izvedena
građevinskih
podnose
psihijatri
krađe
Nijemci
prenositi
Ram
##nesan
Švedskoj
DH
##rr
rekavši
kanalu
##ljanje
leda
istočnoj
tlaka
domaću
popularan
pej
mon
##dnevno
moralo
dvorišta
psovanja
izvršni
savjetnika
certi
papu
izražaja
tešku
##pha
moderan
Mama
uvjetom
tretira
##žine
Pen
dužina
Netko
regionalnih
satu
Crni
pori
mobilnost
kvadratnih
sredu
odlukama
zlatnu
bacio
pristupom
konkurentnosti
trpi
porezne
nesmetano
pozaj
avgust
donošenju
odgovarajuću
Grupe
NOVA
glup
dalmatinske
lični
klimati
nepla
stoljeće
svakodnevni
Madrid
napredne
Moskve
idući
gastronom
držanje
Npr
Majke
postojećeg
tehničku
blagosta
odjeća
jačanju
inspektora
Ligi
##zani
##radnja
##cted
It
ovaca
Naro
dobijemo
##dow
Lista
donacije
proteklo
kombinirati
uspješnu
tambura
trčanje
traženje
pl
stvarnom
glasom
Sl
automobilom
##festa
Obje
##čile
Sisak
##ORU
PB
rezolucije
odražava
vratimo
pravosuđe
Građevi
Ade
##ĐU
događalo
povrati
sudionike
šefo
zaključke
akata
opere
uručio
kvalifikacijama
##rivanja
tražene
slanja
mudrosti
Tip
sustave
Krk
uvjerljivo
pojedinačnih
##minju
seve
Izvještaj
##turisti
Kraljevine
prstima
tvojoj
Kiki
GPS
bitku
proteklom
NEMA
držali
dosadašnje
funkcio
praktične
VIJESTI
Mihajlović
##smi
Pru
jezeru
##pića
Prethodni
toka
kont
bračni
razvijanje
vitamin
го
tajnika
##njujemo
SPS
službenih
Svet
filo
##ville
opširnije
##ano
##ljavanja
pozitivnim
teksti
##đenoj
Ly
Završi
klijenti
shvate
saobraćaju
izazova
German
HK
Jah
uspostavljanje
dizajnu
kurac
samoizo
bivšim
koristan
optužnice
Stvara
igralište
Varaždina
##BAV
Danijela
Trgova
##šče
relevantne
Potra
##njskih
komunalnog
licencom
autohto
upitao
prevr
ustu
demokratski
Demokratske
tvrdio
Blu
zabavno
##tile
##lazeći
koncepta
saradnik
##mijom
##vskim
Delega
Marco
sirovina
Podsjećamo
ploču
Oh
dolazimo
ustaša
vojnik
LAG
vjernicima
brisanje
vatrogasaca
kolko
omjer
Zma
potpuna
milje
imenovanje
propis
usle
jačanja
bogatu
razvojne
umjetnici
glazbenika
Komuna
Svoju
Pogotovo
organe
modernih
garni
SofaScore
oprosti
##đujem
Mata
rekonstrukcije
upoznat
božan
Hua
Apsolu
postavljeno
##torij
pjevač
Svije
bade
Treća
pobeda
analizi
Đin
hitnu
provali
Aca
##cionalna
Zvonimir
uskrsnu
zauzeo
Supe
glasnogovornik
vse
brada
kocka
umjetničkih
konzumira
##ndri
dajemo
Jela
dodatnim
##ljenima
izborom
suzdrža
osamdesetih
srbija
reprezentaciji
Prvu
guzi
sateli
audi
LP
vojnim
ponudili
pal
Druge
građanskog
SAM
paziti
zadovoljava
1920
nijesu
##snje
brzu
nokti
financijskog
vjerskih
550
Naba
garancije
nadležne
predškolskog
kopija
ocenio
Križa
svećeni
##ми
place
Abdu
znamenitosti
prostoriji
shodno
posljednjoj
Dekla
ruža
Investi
my
savršena
prijevod
dragu
##Ma
##panja
zimu
preostalih
Zau
konsoli
mozgu
zadrži
kuhanje
NP
upotrijebiti
Trgovi
Facebooka
času
medu
Indiji
okvirima
##lanče
pravih
ekonomskom
petnae
##bour
pseudo
Nagrade
odle
pjesmama
Navodno
multimedija
stvarne
nacrt
##psi
zaustavi
mleka
kapacitete
##dnija
Slično
saznajemo
Špi
paste
očistiti
budeš
##DNA
pacijentima
svetske
svjedoče
##senzu
užitak
horoskop
omogućilo
Primjer
Nekad
profesorica
diplomirao
##kina
boljem
##ticu
Origina
registrirani
##ova
NJE
paru
Prosječna
ovakvi
hro
šumama
samostalne
normalne
##pres
dosadno
pronađena
napomenuo
srednji
oblačno
provedena
Poznati
Povjerenstva
Čer
kameru
drastično
električni
Toni
književne
uradite
##cta
Barcelona
sinovi
tvornica
Model
Azije
aspekt
##fikaciju
ukinuti
djevojku
1966
##njenom
##tovala
brojevi
četvrtine
glumaca
106
porasla
baba
nepoznati
upotrebljava
nesreću
Maksima
simbola
Boo
Izgu
opremljena
##Bo
učine
vremenskom
skriva
gel
obezbje
putovati
svetih
samostan
##zena
Oslobo
##kuba
odluče
smanjen
partnerstvu
načinima
adekvatno
1914
inspiracija
opasna
iskustvima
##sal
zakonskih
dlaka
##ola
Dostava
zemljotre
telefonu
slučajeve
likvida
bet365
Dijete
bezbroj
utvrđivanju
##GB
revija
pesmu
##uti
oslobođenja
rekonstrukciju
sliči
##poli
nauku
Tera
vraćanje
srbijan
potencijalni
kreativne
##srp
naredio
diza
##alnog
kandidi
kontakte
kolač
Nobe
vodiča
digitalnih
Južno
vijeku
bolestima
nestalih
##vaće
najstariji
samouprava
meša
Engleske
Live
središnji
Aplika
OBRA
##čković
računaru
##ženjima
Hrvatskim
ude
prikaži
ton
rashla
Znaci
##tkinje
zapošljavanju
##gijom
mogućem
čovječanstva
odboru
1400
šampion
ekranu
banja
organizacijom
Nemanja
ponosom
izgledom
žalbu
##за
niskim
obavljanju
glasovi
hladne
svinja
##dinom
povezivanja
iznositi
zakonskim
##miranje
##jevića
mandatu
Poslu
Matu
##wei
uzvra
klime
ugrožava
dječjih
##lsa
hroni
zadržao
HB
##beru
Hara
značajnih
Opati
izgledao
sudaca
različitosti
Predsjedništvo
neprekidno
potencijalnim
masku
Zamje
##dovoljan
Mega
đu
##си
slušao
pričama
mišiće
vratite
tehniku
moda
##ženiji
mobilnog
##vde
Budućnost
##ANE
izuzev
Državno
Dese
znanju
Valje
neophodni
104
##ćivanja
treningu
firmu
staroj
mrk
lozinku
medicinsku
nastupe
seksualno
Italiju
značaju
onemogućiti
mrvi
serijala
Utakmica
##luku
snje
tehnička
385
Energe
Uze
prednja
svojevremeno
djelokru
##tnošću
ned
ljetni
beskona
KAO
Zemlju
bezbo
Savi
##žica
radnja
daljnjeg
Agrokor
biologije
umiru
društvenom
gradnji
##zane
##tve
Umesto
Slike
Dario
Woo
BP
advokat
obavesti
godišnjicu
uspostavi
Hot
zdravstvenom
1964
dlake
administracija
maksimum
planeti
sponzor
tvoji
nizozem
Miloševića
##drže
obrtnika
Ron
seksualne
asistenta
##dir
vizue
agro
##ranima
prvoliga
suzbijanje
obavezni
atrakcija
mašta
ukrade
obes
spomenute
Medu
lai
odrek
N1
norme
napor
krivičnog
domaćinstva
najbr
priznala
odraz
odeljenja
nabavu
##šnjenja
bea
DF
nosim
Predvi
Recor
ofici
nejasno
prijedlozi
osposobljavanje
##žima
Instagramu
izdržati
##wards
obnovljivih
listova
utvrdili
lijepim
depozi
Zamislite
žar
Duga
povezanosti
##terom
Plana
SLO
aspekta
Roberta
osobna
navijače
lokalno
Pero
zvanja
##mnjivo
nazvan
kompromis
sofi
akce
##vsko
manifestaciju
INTER
Sm
Znanstvenici
Federalnog
bola
source
putnici
krava
nizom
ris
prekora
festivali
##zervi
prosle
koronavirus
ostvarivanju
##lag
Fire
napetosti
##SKOM
##lcima
proizvođačima
momak
Ulja
##foni
Osnovnu
izobra
apstra
izvještaju
Hall
##vkom
##ktura
aranžmana
Bas
##prom
Colle
Gornjem
koba
##ngvi
Mah
POSL
##gge
fle
učla
minimalne
##cica
Kovačić
litre
doživjeli
tradicionalnih
ATP
koka
povećana
udaljenost
GODINE
patrijarha
##cionim
##ČKE
misiju
Nosi
uzimanje
doneti
##lajn
saznao
postova
civiliza
pila
##centri
egipa
##usa
održivi
zivi
##ice
poštovati
konkurenciju
generaciju
Kristina
zdje
POZI
svjesna
obraza
VIII
vecina
##ingeraja
##tent
sija
##žavati
File
globalno
##too
Odi
popravlja
Toro
spr
##rini
boravio
presje
saradnika
jednostavnije
srebr
dres
ubacio
Sala
tereti
##dovala
##gnuta
značajnu
Mike
vjerovali
zdravstvu
uzgoj
komade
##SLA
##war
restrukturi
vene
Skoro
Masa
##yera
podesiti
projektne
srebro
##geni
Londona
nastupaju
Gabri
stvorila
##fona
Aloj
rješavati
umjetničkog
zabilježeno
manjak
##pce
branitelje
Banjoj
galerije
Restoran
paketu
Bugojno
Las
kuce
najbitnije
Svim
pokretanja
borio
probija
hoke
socijalnim
operativni
hipote
konsenzu
akumula
heroja
##šuju
##bnom
atri
iskusni
obri
stalnom
autorskih
razbije
IU
##čujući
nezgo
sufinanci
koda
Ari
##miranih
Dino
voja
prepušta
Zlatni
##zijama
ženom
ambala
kulturnu
upućuju
iscje
padu
prirodnom
Švedska
prosvjed
##ćka
karan
asi
Pobe
sloja
saznajte
namjerom
##dition
poslednja
veterana
Ogu
inženjera
Rada
Najnovi
##drije
monetar
Prištine
tuši
Australije
nasuprot
Legenda
komentaru
nedovolj
Polje
upravni
##3X
##šane
srijeda
relevantnih
suca
propustiti
Travnik
trajalo
određuju
##blije
kardinal
bivšoj
Bijelji
##wis
klijent
akt
legende
ostat
##šnjenje
##VJET
ministru
Astro
improvi
približiti
dionici
ankete
biza
zvi
pogodan
poslat
radiju
uzorak
kadrova
tradicionalna
biskupije
nevladinih
zap
vrijedni
pomoćnika
##inte
žuti
elita
Biće
dočekao
##zacijom
Deklara
podržao
današnjice
proslavio
trave
Otok
##redno
pedofi
sekcije
konkretni
##šnosti
sro
Budže
brate
imenuje
jasnije
Funk
##bljene
Depart
strancima
##zone
Starog
Moji
sunco
deva
vjenčanje
##bat
zata
obraču
jednake
##sano
##ndina
pokušajte
carstvo
samostana
svinje
opozicija
jutarnjim
savremene
Andrić
##gins
novoo
listopad
Kragujevac
rasa
Postupak
Znaš
Bošković
Blic
korum
energetsku
odustao
bubrega
najpri
Kotor
piz
juri
kleve
kutiju
jugoistočne
uspomene
##jnost
stajao
Scho
oduzeti
financijskim
Srednja
izvršena
Opro
grčki
kakvoj
obilježen
kontakta
interesuje
aktivnog
Whats
umetnost
postelji
Novoj
Nauči
koordinira
Izna
odgoji
##kore
Stvori
kopne
Slavonskom
napiše
Hercegova
strateške
bojko
Formu
##hio
Dimen
raskri
gotova
inženjer
dugog
nestati
namještaj
gospodo
učenica
Deca
raskr
ljudsku
pomoci
Beč
##bnoj
Bela
publikacije
##TNO
realizuje
puc
igrat
odgovarajućim
##37
##šavajući
##ntica
##stala
reklamnih
ideologije
Uredba
omek
Dy
##čit
opredje
građevinskog
potencijalne
nekakve
##pica
Group
napustili
gaz
jednaka
ponašanjem
primjeri
remi
Ljubljana
##djelo
finansijskih
olta
vlakana
Obrazac
snimka
kulturo
Milanu
saznaje
##ros
uzimanja
##rnike
Osu
lipo
prijema
brodogradili
jubile
zasluženo
Kaštela
ručka
##jU
Sastanak
povijesno
popije
##seno
odbrani
##cto
dimenziju
kolača
##venom
##lori
##ље
procjena
patnje
SN
osnovnog
ravnom
Vino
povećavaju
Bjelo
dobivanje
ogromnu
Ška
dnevnih
otkad
đe
platformu
širine
pripadnosti
tanju
##roze
##ničkim
demanti
Commons
bježa
potpune
##lističkih
visokoj
155
snabde
sekretara
živjela
mod
dogadja
promijenilo
baciti
108
jah
formata
komentiranje
rangi
svijeće
poluvremena
Deset
KORI
0691
deter
revizije
Gil
heroj
razvese
Džo
dolaziti
##SKIH
poklone
fabrika
planirana
preporuku
Elec
##200
biznisa
##šini
paralelno
zaključili
kupatilo
Globa
bok
dijabetesa
otkrivanja
##prva
zabavni
marki
Armije
unosa
##ssma
komunikacijske
Uvjete
šumu
prosjek
pobunje
dajem
##по
Toyo
gay
Velikom
oporavka
rodo
raspodje
##nen
trudnice
##vova
šminke
logor
nečije
ličnih
ukusa
karticama
stranom
iPad
spremanje
Spomen
smrtno
krivot
Obavez
##godišnjih
##mic
restaura
format
karto
stilom
Up
nakita
penzije
##lls
Vrijednost
1200
##VOR
autu
Nastavak
Brazilu
naplatu
trudna
izvlači
##ltar
dosadašnjih
pesama
spojiti
vidljivi
##mirom
Jelačića
odabrao
ponašati
uticati
##CK
napravit
Podi
partnerstvo
glume
Sisa
gljiva
116
smanjena
derbi
zaslužio
vazduh
Znanstveno
trude
##zemalj
Značaj
##đujuće
uputama
karne
vrta
organizuju
ČE
efekte
matične
care
sloga
Eh
pogodaka
GP
sy
igramo
##loma
vodstva
atraktiv
Pregleda
##ent
relaciji
sastanke
Međunarodnom
ruskim
ambasado
učinjeno
MINI
kratkih
Pelje
uzga
ignori
amandman
srb
mirovina
periodi
bolove
proslavi
proslavu
javila
##eo
Stranke
##dac
Kolum
Šteta
##vič
deka
Slučaj
prirodom
##ndamenta
Bugarska
ogre
Brzo
nosite
Cho
1965
rijec
komedija
telefone
crnim
talijanske
zabraniti
redovna
optimisti
suradnici
nastavnik
dizajnera
plavo
uzoru
obezbedi
naplaćuje
oznaku
tačnije
automobilima
poreznih
turističku
Bjelovar
##dnikom
Karla
poštivanje
Održana
kazati
Tribu
Pošalji
Koza
životima
sema
četvrto
1962
Anka
trudi
studenta
pokrenuta
odredio
Mija
frag
poteškoćama
##zirala
klubove
posred
razmatranje
##ngli
akva
manastiru
Odra
McC
stave
smiješno
njemačkih
brzini
##pče
štrajka
##riću
IB
pečat
društvenu
##зи
razmišljam
bale
smijeha
##njaku
obilazi
Predmet
Vaskr
slikara
predviđene
prsta
Memorija
high
morske
##uge
bespovratnih
milja
narodno
Ukrajina
##tjela
slovima
groblje
Detaljnije
unika
zabo
masne
##raš
najvažni
shi
plažu
originalni
tragove
CRO
očekivano
istaknuto
ministrom
podlije
##pošto
sportom
adu
dizajniran
nestaje
CS
izdaju
živjelo
##date
mraku
Odo
ispunjen
Naglasi
člancima
priuštiti
Janko
Aposto
postupanja
Božije
##ore
zasjeda
##fine
Očeki
LGBT
ruti
##govornica
Intel
monar
novoga
opravdano
adoles
ponosno
izvršitelj
rođendana
demonstra
##sco
Arena
strip
##hova
poseti
zapadnoj
četrdeset
stranaca
Medju
ambula
proc
lat
dubi
francuskom
hemo
pravomoć
naučnici
šampo
teoriji
UNI
Krešimir
Ivice
propor
Sporazuma
Mole
prašine
##ners
JKP
lažnih
otkriće
uspješnih
sigurnosnih
BESP
Kristu
##SKU
okupilo
zlu
tablice
Inc
pričamo
impresio
Površi
VIP
crnom
Ant
interesovanje
Albanci
učilišta
ženskih
incident
Zagrep
konoba
cool
libe
kupite
varijanti
duhovnog
okolinu
Dubo
Jugoslaviju
namjeri
izveli
filmskog
##shion
senzor
Sredstva
demokratije
vidljiv
misti
osnovama
liječiti
usmjerena
Vidović
balan
vremenskih
Zada
realizirati
##novic
ukusu
jedinicu
intriga
molitvi
##rovu
preporučujemo
Pavić
raspolaganje
psihologije
selekcije
džamije
fudbal
oa
invalida
šok
unaprijediti
laboratorija
najbliže
snažna
zaradu
bosanski
najavlji
Novac
##ног
tunela
CIJE
izrađuje
pušten
Music
utvrdio
debljine
razredne
muka
kvalitetniji
##vljujemo
##jefti
jedinstvenog
##zniji
šminka
točku
##eko
Pjesma
prestala
smješteni
##šnjak
1953
učili
this
islama
ujedna
jug
slušaju
##veti
Seba
##dska
Srpsku
koordinator
raspr
marka
KR
idućih
##njac
Podgorica
##drati
Inace
zajedništvo
##GLA
općeg
duboke
ploči
analizirali
epizode
široj
odne
ast
prethodna
Zagrebački
nadogradio
nekadašnje
privatizaciju
##reen
dugove
##cla
južne
skuplji
izbaciti
nostal
isprave
metodom
dužnosnika
##lm
prodi
Štoviše
server
uspa
uzmu
voliš
##sol
uopste
Dou
pojednostav
Lijepa
najmanji
mahom
##vatelj
revolucija
ljubiča
proizvodnih
elektronsko
likove
opterećenja
##perior
glatko
vladar
dokaže
pridruži
##TAN
##vuda
raketa
koloni
fotografiji
stazu
kompaniju
wc
Ske
starost
veže
cete
zaposli
##venta
##tik
celom
##pram
prikazao
pronađu
godišnjoj
ohladi
životo
teškog
šuplji
kratkoro
Brna
kritiku
omladi
Sel
Game
studenom
juga
hladnja
##pisan
Gli
##gua
istraživači
##zbor
ustaše
prošlu
pojedinog
Južna
konvencije
Evropskoj
Ratko
##LM
izvršenja
dostupnost
Ae
Zara
Španjolske
Strossma
principima
nožem
loja
##tten
odvojeno
Imala
visokoško
Gui
##vljenju
Brijeg
Bilić
povezuju
podsta
Sjeverne
uspjehu
io
CEN
##guju
poslodavci
cvijet
##hana
ranim
društvenoj
prijeći
odgovarao
frekven
golom
##štenom
prosvjeda
književno
martu
svjetskoj
kratkim
##kulić
Soft
ljetnih
Holly
prst
započi
certifikat
ruralnog
Donosimo
upotrebom
odvesti
koreogra
gubitke
Tuzle
Vranja
miš
izazvalo
UR
Izuzetno
Dubrovačko
Gun
dopada
banku
Koristite
rasvjete
dokumentarni
##lijama
zlostavljanja
potvrdi
sno
tende
##work
beta
Gospodina
odlučno
tadašnje
##mal
renesan
Srije
lijepih
dugom
##niranja
Turaka
gosp
##STAV
##govornika
pozitivni
pretraživanja
publikacija
Iscrp
istre
pravnom
pretpostavljam
mailom
intelektua
Island
izgovor
bazenu
Požega
redove
1963
prosječno
cigarete
stanove
##sobni
##tujemo
prošlom
fora
igrice
Raki
gužve
Bana
nježno
Registri
zajedništva
##grade
parado
odradio
Spri
napreduje
Švedske
islami
##vda
##ćević
Mand
predstavni
##alth
RTL
reviziju
tumora
sredinama
nekadašnjeg
polufinale
##pice
dostignuća
odbila
zapada
pridružiti
##ncem
##teljski
obiteljskog
##ksio
##llen
Irine
prvaci
židov
otpre
progresi
sastanaka
mudrost
Predstavlja
sandu
##rer
##bljenja
supti
izvođenju
displaystyle
preusmje
Raspored
ostatka
toplom
skupe
##æa
4000
##bori
nailazi
jezike
medicini
vremenskim
komplici
pozivajući
sunčano
##zentacija
Distri
##less
DSS
nokte
vježbanje
koševa
##ily
Nagla
##medi
veštine
##čarski
##banja
##luma
komunizma
Nature
##žnjom
snažne
TZ
svidja
rehabilitaciju
ljubitelja
##vačkom
ostrva
Kora
terorista
dvoranu
##pljenja
##novca
boksa
##ritet
zastavu
elektrotehnike
europska
##lokau
zajedničkoj
Razmišlja
Zeničko
zadržavanje
Jeruza
realizacija
##nčić
Ispod
##činom
##njsko
Kulture
Opo
##CH
Savić
fraje
##slanstvo
price
vatri
pokrajini
Clo
zapadnog
vase
normalni
##STAR
##šniji
porodicama
Ćorić
Alen
zdravstvenoj
čestitao
##vačkoj
Pridru
specifične
Sanadera
Il
odvijati
Indije
Chica
spolova
##tkama
asortima
materije
##vaskula
Track
prstiju
Lucija
MORA
sive
bake
ilustra
##imenova
tečaja
##dozem
##ses
prilagođene
pozaba
činjenicama
krst
koncentracija
##zla
Street
punk
##ktori
nazvali
Volks
kusto
produkciji
Matematika
vratim
opremanje
rodnom
odgovornim
autobusom
##ugh
Đila
nekaj
stanicu
##ORT
terase
delovima
pripovije
##cco
Pink
##REN
talijanskog
poznajem
plodove
moguću
##mero
##grafiju
##my
čestice
Predi
komponenti
##novićem
##ćite
pridružio
Dostup
##tw
obvezno
glavobo
ALI
##ција
Miroslava
unutrašnjost
proslava
Dokumenta
modernim
nož
##ца
svečanost
Club
živih
White
pretpostavke
LCD
Slavoniji
započelo
rukome
medicina
boce
postavite
hepa
šetnje
mladost
##tjeti
upisu
ribolov
skle
išče
gno
dnevnim
falsi
rakete
press
Koprivni
##norma
časopisima
izrazili
##ckih
protivnom
nečim
recikla
Opatija
Karlovcu
matri
fonta
##vaka
osmi
pogledate
današnjim
prouča
novcu
Poma
unapređenju
teze
Guar
Lak
prikupljaju
razna
moliti
neprave
oke
informiranje
tune
##OP
govorilo
##ljane
blije
uveče
zatražila
filozofija
##care
podrijet
lošim
prostorom
Nek
##cida
prelaze
##bak
tragedije
obljetnicu
##ljac
site
novorođen
samouboj
zapadni
##hod
vaku
1940
šesti
Kan
cela
Đinđi
Strategije
zabranjuje
izgledala
nadzorno
Krupa
metodi
Heb
Besplatna
zakle
zaži
invalidi
##sit
došle
gazda
Disco
Aziji
pjesnika
djelatnicima
omalova
Izgradnja
kulinar
Mesi
##tujem
poveznice
bugar
##fak
Svjetska
Situacija
Procje
rec
plodova
##FORMA
zadovoljstvom
igraca
Njegovi
desetine
održaće
Rei
potko
Ujedno
Univerzitetu
##BRO
idejom
pucao
##therine
Autori
sindrom
Pob
Oliver
1946
slovenske
rujan
spektar
##đaja
obična
glasu
mnogobrojne
##vnicama
krši
Smart
Konkre
NU
##noviću
profesionalnog
##gat
Kosa
podlogu
##лу
preminu
šumarstva
Hrana
Gornje
##hoplo
oki
##đenost
srušio
ideologija
zemljištu
Ovakav
željeza
Manje
komunista
Kolu
završnici
Bihać
##čad
normi
zloupora
sitni
##ghe
metro
Donje
ogledalo
majice
desnoj
suočava
##peta
##terapija
Najprije
Fore
predloga
##TAL
plače
Odgovo
septembru
Dži
Revi
namijenjene
jadran
slatka
državljanstvo
usporedi
trepa
upravljaju
##gnite
##tos
Prištini
uspostave
poljima
slavni
neprijatelji
isprobati
centralne
##MET
fizičkim
##die
izmene
maslina
Zadnji
Vašoj
##ðe
stjecanje
##zilo
##rista
slučajem
Porta
Akti
smjene
gostovanju
kaznom
##pany
žensko
##ceg
##stira
obrazovnog
plovila
##šavali
kreativni
šećerom
##zgo
##49
Huse
pomislio
menadžmenta
motorom
##šek
##ntski
##iser
haljinu
izum
obliž
DRŽA
Tužilaštva
Iznena
zalaga
istraživački
potječe
čaše
neodređeno
grubo
neizo
Radić
pogledao
Potro
ukazati
manifestaciji
##vedene
lakši
novčanih
ubaciti
kineske
SPA
Luči
varijante
platili
prelazak
načelo
##isen
ale
SARA
cjelina
##šči
primjerak
##OK
prepoznatlji
lideri
finansira
poručili
sjetiti
živu
ruba
##novih
talent
popuste
volonteri
lovi
povjer
liči
zdravu
troškovima
sorti
optužen
sjedala
potu
uhvatiti
nezaobi
109
kreditne
obiteljskih
prezimena
bogu
##broje
udovi
tempo
pijani
izvanredno
NIS
##thi
britanskog
favorit
##šavao
fizičku
domove
održani
dobijem
##seri
##mov
ultima
izdi
farme
Plani
Jabu
Ispred
uznemira
kupovini
##jI
korisna
rezerve
prigovo
ideji
Pana
oblo
Španjolskoj
##pskih
stupio
Tay
##kovic
srijede
Svrha
regulator
nadležnom
Thomas
##rik
menstrua
realnosti
##sljetku
Profesiona
crkava
210
Isusova
##moka
mještani
izbornika
raspon
##grisa
Milen
jaku
skrati
saku
orkestra
Ilijaš
rublja
kratka
uhićen
svakodnevnog
Niste
##dovića
skupova
novčanu
##ror
##euro
lošije
birokra
##čama
##stičkim
##lete
beza
RAD
##lačio
potpisala
SportSport
OSI
Veličina
Putina
Juraj
##nega
mozai
turističkim
##rtom
evidenciju
đavo
nepotrebno
čitava
Docu
##alnih
Amfilo
bijaše
##šija
bijelim
tumačenje
zaustavio
Hitler
Lokomo
zdravih
Rese
pripadnike
interijera
Dama
Slobodana
egzoti
Inde
ograde
##kovićem
školska
seznam
zabrinuti
zatr
##vika
Podru
Ustavom
Ambasa
pametne
jednostavnim
bonus
vatra
Alu
##LS
kreativnosti
##nirana
nastupu
Farma
ovima
glasove
egzistencija
stanjem
katoličke
golf
##lari
narudžbi
udarca
nakra
torbe
suvremenog
##peti
odve
ZI
površinama
Predstava
senio
##čajima
Istorija
privrednih
preduzećima
liječniku
##će
Lice
sanitar
okupiti
upropa
portuga
##autor
konac
peča
luda
Spasi
sudskog
klizi
##njacima
skladišta
##brane
uplatu
111
jedinstva
gitara
##djena
Javno
##zeta
ubojica
evalua
Koštu
obuka
pakao
materijalno
PET
##001
ljestvice
Odlična
Rezo
Ranije
uzda
Objek
Jasenovac
udalji
stavkom
Uloga
mleko
poslan
Utvr
objavilo
ekste
Banke
redizaj
današnja
kneza
mržnju
prisutnosti
tkivo
vredi
maka
omiljenih
okreće
Book
##menat
odbiti
INA
fan
Savjeti
Tvoj
Bosanska
##vere
game
pojasa
Francuzi
Konkurs
turiste
raspu
besku
##djenje
##sović
biskupi
Fabri
disciplini
stanovanja
hospita
ispovije
##NIJA
ocjenjuje
dostupnim
##mici
zvona
Peki
odlasku
##vljenu
spašavanje
Rio
1939
pumpa
četvori
mila
lažno
mrtve
osudio
hoćemo
ćirili
globalnom
ido
Agenciji
neuspe
prikazivanja
Andreja
napravimo
reformu
dvora
ujutru
Joa
##PRE
sirom
Srđan
TRI
Lovre
uspjehom
IX
izdu
rasponu
Češke
Pjeva
Sav
Sekre
presla
državom
##čenosti
nastupima
respe
##šalj
prsten
Pay
železni
premijerom
Roj
pritvor
besprijeko
obuće
zapadnom
##njin
utorka
provođenju
Doručak
djelom
Pravni
cega
Un
niži
napadaju
uzviše
Zavodu
voditelji
donela
tajan
uvali
porastu
službenom
Putem
napali
upali
sisteme
Arsena
hladnom
##GOVOR
servisi
obojica
Dunava
veruju
oblikovanje
prostori
Snima
##ćava
jb
pametnim
istorijski
kupovina
##Fi
titula
korisnih
motivima
Visoki
scenogra
prevara
određenoj
besmis
ZAŠTI
preduzetni
life
Hristos
najstarijih
trebaš
odgovorili
kafića
zarad
policajca
Telefon
potragu
##це
putnike
zadaće
Donal
poravna
nemogućnosti
oslobađanje
namenjen
Međugor
discipline
izborna
dužnosnici
Uniji
GS
preporučuju
jevre
američko
##PIS
##lati
surađuje
smijem
Bau
Fina
afere
Grani
optužnica
Aktivnosti
sex
##ND
Obrati
KOJE
##hrana
regenera
tvrdim
Photo
##bsp
bezbri
##šavanjem
pratnju
wat
transporta
konju
dodijeljena
oprostiti
##kur
Carita
Fle
izložena
daha
BR
Drži
zanat
nuklea
oslobodila
populari
živite
informirati
računarstva
ugovara
grožđa
pčeli
žute
Evropskog
moral
Leta
##vovi
doznajemo
Oluja
##них
Živković
zaštitnika
minerala
Uvek
otocima
ago
Dodaj
##ljela
tjera
svijetlo
doček
blagovao
doze
dokazuju
uklanjanja
Tanja
##run
ambicije
Promocija
amino
JAVNI
rekonstrukcija
individualne
sponzori
svemiru
##veko
##fori
posljednju
plinova
une
neobja
nedostaju
##jj
crkvene
dosje
nepotpu
kućnog
Pano
##čanima
tjeste
uključene
Ado
Marketing
##DITE
kadra
Liga
obezbeđuje
želeli
##tat
Esto
ože
nastalo
knjigovo
pastora
neta
Iznimno
Sportski
uđu
smu
suočiti
posi
udaljena
usmjeren
političarima
odlučeno
delegacija
Božidar
pojmova
##ganje
izvrstan
ambijentu
objavljenom
maslac
stranog
devojka
NAS
Uvod
osigurana
Mije
##vljam
naspram
ekvi
##džija
zanimljivim
okolice
divan
remek
##eta
delove
##vanović
##zapad
vlage
triju
protivi
Provjerite
duhovna
##ving
##bao
##sat
kontej
poduzetništvo
neumo
topo
prijateljski
##vitim
Stoja
Obavještavamo
zapisi
višim
dugova
Franko
uveliko
##kso
stavovima
zahvaljujem
Imenovanje
Izd
izoli
##cture
lanca
Hajde
##afri
##ženoj
armije
istraživača
Apartman
nezakonito
vikendi
##La
operi
voljeli
kohe
##RUČ
kupim
pobedi
pretu
pretpostaviti
katolici
dajete
destru
##neš
poveo
Dodika
Zaje
Klix
odmoru
prede
ponosa
##vačkih
najtra
lijepom
Šarić
nikom
Rijeku
Lee
sastao
športa
lingvi
##ски
delegacije
sopstvene
djevojaka
uvjereni
junu
severu
Sol
ukrao
globalnog
Barcelone
##ljki
jedinstveno
aspek
pričvr
odlični
Ostavite
Matemati
goru
disanje
moras
videu
oro
##rih
##leran
krivim
puteve
metabolizam
can
prelaz
neugodno
njezinom
izviđa
maksimalnu
##žaj
započne
izvršitelja
##znoj
ISSN
igram
BRI
##zmite
##togla
informiranja
sjedišta
oktobru
siliko
zalo
astero
Magazin
Smije
nelago
##đivala
##kovite
uputi
uzalud
Projekta
krilo
novinarka
vežbe
FS
brošu
dolazio
##rakteri
sigurne
prevoza
ruž
borave
kompen
Odlično
pristupi
čijoj
Mare
odradili
šeši
skuplje
anto
poigra
porodicom
provincija
ubila
podignuta
otpoče
teza
Naprotiv
Mit
kanta
teškoj
##rište
prsa
Sjeverna
bebi
Vode
čar
Robin
pročitali
voleo
iščeki
nivoima
prouči
književnik
##šemo
Vranju
nastavnicima
obraćanju
pepe
Pismo
vlastita
specijalno
sudovima
Bruno
nejedna
Rima
##38
##krip
pripadnost
pozorište
euharisti
blizak
##MIJE
studiranja
zagađenja
postave
##portal
upisi
tehnološkog
stabala
tehničkog
desetljećima
džu
Sudio
definirati
Tursku
Bratu
##džba
##ferencija
Sramo
famo
mjestom
DRA
izbornoj
##bena
chat
učestvovati
ispadne
##jin
##mita
moralno
Smith
prosječne
Moli
prihvaćen
##ziranja
home
ponijeti
odmje
Foj
sportsko
##dea
rečenicu
Fak
Sergej
Col
##ship
Petrov
vlč
glad
nezamisli
performansi
pokušate
Analytics
Edin
Pokušajte
izdati
eksperti
humor
nedou
platu
utvrdila
jedanaest
##njao
sukobe
Dun
radnju
alate
Sub
BESPLAT
Fanta
korijena
ici
Visoka
##čnija
spasila
nadgleda
Fejsbu
svojevrsni
svibanj
##nuje
regiju
sale
max
niska
Bush
čitavom
DPS
isplatiti
protuma
Linux
posude
žali
dinar
riziku
Nokia
pojedinačne
analitičari
##deseto
odvo
tehnologijama
ovci
Jasna
Pere
matematika
Zlatna
Istarske
mju
položili
Smrt
obala
gospodarenja
##hur
suviše
golman
turskog
ključnim
čoveku
gostovanja
Beta
##jd
##đana
send
vjerojatnost
Izbje
Bill
organizirano
naporima
navu
##ČAJ
plaćeni
nedostatke
##dništvo
jeftiniji
peša
moč
generacijama
##plika
Jedin
##čali
Idemo
suvremenih
uspjehe
stražnji
slikom
##vie
koncerte
rubrike
vjerodostoj
čitala
izvanredne
zločinima
strojeva
sporno
restoranima
Hamil
##rote
sena
brija
resursima
kraći
Jones
nečeg
povećala
posjetila
otišlo
državljani
##ljevi
##VIĆ
pređe
iskazi
Nadzornog
mašto
PROGRA
medicinskog
Vanja
##stovi
hramu
Dolazak
##liste
Bob
detinj
prisutnih
nj
liturgi
Mitropo
##ginja
zadruga
ajmo
Ministarstvom
ekonomskim
manu
finansije
niža
trajek
osjećao
monitori
državnosti
uključeno
Urba
beše
utvrđena
solidarnost
PBZ
Mars
nižim
Efe
kopa
angle
vježbanja
osmišlja
SV
novčana
Olivera
Izetbe
neretvanske
годи
ljubitelj
Mobile
pretplatu
##fijom
kolovoz
##ghts
autoritet
južnoj
##RANJE
prazne
prijateljice
sertifika
##zijski
Ura
odlaganje
KUL
rasprostra
stvorena
uzrokuju
##ketu
Joseph
utjelo
ozbiljnih
##viš
Papi
klimatskih
##janju
obranio
rastere
Boru
jedanae
##ith
suci
jp
Iscrpnije
##ball
svojstvu
povjero
proslo
lekova
potrebnim
voljom
inteligencija
čvo
##èe
zlatni
OIB
unutarnji
Pravilnikom
##parati
##JAN
aktualnim
Kuku
putovanjima
žaru
krup
panel
Atle
osposobljavanja
##cnih
##čala
stalnog
umetnika
Patria
razigra
zapovjednika
##SNI
zadr
dajući
tka
razvili
zaslužili
ponovnog
mlađa
nula
##rning
ška
priključak
popiti
neophodan
##ručnik
jasnu
Age
KUP
Obr
diskusija
osvajanja
ubijaju
temeljito
oprav
manjeg
vidljive
Automobi
spektra
Festivalu
zoo
kalendaru
Italijani
raduje
proteklog
have
krijum
sestru
##èi
vatro
razvila
uređen
pridonijeti
tetova
mrežnu
okolnih
nepis
apote
##tnijih
ranijih
##nično
Starom
ZO
baranjske
Računa
lijekovima
doživljavaju
spremne
OF
estra
glupi
svile
1930
novost
usluzi
napretku
Borba
sastojak
rute
presa
##običaje
franši
autoceste
proizvođače
proširenja
Namje
Kuri
predložiti
naočale
##ciraju
Lagu
kupaonice
zasluge
CN
police
##jce
##vicom
Prekra
##movića
##page
sportskoj
Radovan
pojesti
##bie
belgi
postignuća
poisto
Upis
Amster
psihički
nestalo
##dništva
VL
Baja
##са
Proizvod
##ља
društvom
Poslanik
pesni
##alnom
##nciju
stavu
mat
Matije
Sjedi
Science
kršćani
ministarstvu
Širokom
promeniti
obavezan
testova
najmoć
blista
čuvanja
anar
klasični
individua
zamenik
masnoće
##kemi
upisala
utvrđene
##hodno
veselo
transakcije
Jev
oceki
Pitam
lakoćom
suzdrže
Bici
potrošiti
jakim
pritvoru
lagani
nadasve
bašti
Ovak
iskren
pripremila
sprečavanje
rešavanje
izleta
obaviješteni
Ruska
##nasta
pločice
##dnijih
fondu
Poreč
izbornih
Jef
ocem
kuhati
tijek
Fren
električnih
ruši
Novinar
počinili
##lette
prvoga
globalni
##nitih
aprilu
zelenih
boro
kaznena
ispao
##vanoj
##cih
obrazovnim
segmentima
smijete
njemačka
##ду
komponenta
Stefana
isje
detaljne
dog
Volkswa
gramati
doje
Ministri
##mata
##ljača
propustio
crvenom
idete
snovi
zaslona
dosadašnjim
ulije
tech
osnovano
pretvore
best
Boža
spektakl
##ada
##šćen
stambeno
Kriti
vaspitanja
ograničenje
potr
steri
lis
rješenjima
zabavne
pp
rješenjem
PRAVI
oslobodi
poplave
Njen
naučila
molekula
hetero
rasple
izvršili
##šca
##ке
gluko
glamu
Mary
napomenu
pomisli
Trajanje
NIKA
logoru
##mble
dir
##rmato
Zahvaljujem
kopije
NGC
pejza
reagira
mjehu
ekonomiji
dopuštenje
raspisuje
1947
smanjila
scenarija
bicik
cijelim
salonu
prikazivanje
vinograda
##ctor
dekan
##staj
Areni
slicno
Džu
Irak
Nekako
neisti
Sor
Vjeko
Johan
##žavamo
##pozna
vidis
##jite
PAR
ratom
##yes
Sena
slabe
nbsp
procesor
##čući
kila
dvojicu
svjetsku
pregledu
eksplozije
dopi
CG
Engleski
turneje
otje
Sistem
riješili
dugim
Puti
opterećenje
nastavni
sjeveroisto
obavještava
usvajanja
komplikacija
Poveza
zbirku
##cic
propisanih
##stvenih
Valja
##htje
prirodnu
sljedećoj
jamstvo
prikazano
IG
Vjero
##tisa
zvanju
##́e
odva
odbacio
Twitteru
godišnjica
zgradama
##kulacije
biljnih
progna
##indu
Rezolu
tepi
Obno
Mitrović
realni
Narodnoj
Arhivi
Tužilaštvo
NAKON
Ilo
vjerovao
svest
državljanin
izađu
preka
stavke
Komi
Prvom
dozvoli
##AL
fokusu
fašizma
reza
arhiv
inozemstva
Napokon
320
situacijom
leksi
filmom
norve
žila
sugestije
##ZVO
infrastruktura
Plu
prenio
čaša
crnoj
jadni
##Pre
nogom
Hotels
stavljen
##šnici
naljep
jedine
prazna
prijavljen
životna
tonu
mit
##bali
pretvorio
lagan
starenja
organizovana
recenzija
sumnju
##socia
kemije
službenu
kaplji
##ligi
marihu
##hem
ponavljam
inkuba
kompletnu
##ćevog
obnoviti
Zelena
tužilac
650
tužitelj
preduvjet
##cht
osuđeni
MOŽE
##ćana
hijerar
##doše
dobrobiti
naseljima
ere
ispričala
mogućnošću
godišnjih
ambijenta
posjećenosti
##spot
##energe
sudovi
TOP
##torski
običaja
zidove
planini
snimiti
raznolikosti
cis
trci
Korištenjem
uređivanje
Oružanih
smio
potpisom
obišao
##65
nagrađi
protected
seksualnog
Soba
nezakoni
dokazali
korupciju
Duško
školo
nato
izlagača
inspekcije
Menad
Next
Vedran
Brat
man
zahvaljujemo
nastojati
dečka
vizija
nasilju
rušenje
najčešći
izlasku
trenutne
odabranih
udi
subjekta
prigovora
julu
telefonima
Jutro
ručni
Katoličke
dobu
bice
kretati
zadovo
Го
Europsko
dolini
vlasnike
Serija
književnih
građevinski
Italijanski
Sjećam
tradicijom
ČA
Stožera
pištolj
razmjena
##uče
inostranstva
osjećamo
zahvalni
Gost
Kandidati
cili
detekti
##slanstva
Zadarske
Miodrag
normalnim
spomenutih
##pedije
##liba
kratkotra
Beyon
Đukanović
klasičnih
referendumu
##dnjaka
##LIT
Narodni
Kari
najlakše
radeći
koštati
djelatnostima
##hović
æe
promoviše
suočavaju
kompetencije
##ćas
ljubavni
pomagati
odvijaju
##žljivo
imovinom
##гра
Dijeli
##OVAN
vrhunska
preostalo
##ćeš
uzvi
##rant
SPO
Studij
uhapšen
##lante
pričom
Napu
##ove
nervi
naučni
Zaposle
th
Ano
Molit
iznenaditi
recenzije
inspekcija
unijeti
analog
razuma
Umro
odaberete
165
rukovodstvo
potražnje
##teme
1956
majkom
režimu
predavač
domaćoj
PORU
njezini
izveštaja
##tizam
wellness
uzroci
##cc
vanredne
spajanje
službenik
zlatna
svlačio
bijelom
Županijske
pane
konfigurirati
štetne
azila
misleći
sufinanciranje
političare
diplomu
onlajn
INFORMA
zatvorenom
kojeka
tanke
polaska
##grafski
ogr
glazbenog
nastavnike
##stvenog
poduzetnik
zaliha
Daleko
cijeloga
grmlja
simpo
bese
nigde
parali
crvenog
poticanja
približava
nekontro
interva
##stanu
svjetona
Es
usisa
besplatnu
proiza
sportskom
Kino
vice
Džon
trazi
Britanski
zatvoreni
svesni
Želja
##cel
stopi
##ćujem
kolestero
glasali
pozicijama
##kal
stanicama
##vačima
Visa
holivu
porukom
najjače
rusko
Jastre
poverenje
sd
primarno
Hai
delovi
zaposliti
Center
bivšem
načelu
##ktivnost
lipanj
podrum
napajanje
prevenciji
zanimljivu
posvećuje
stječe
nuklearnog
peru
tadašnjeg
uradila
vođ
bolnicama
Matej
prateći
grupom
Bogorodice
studijski
Dajte
HRVATSKI
stambenog
123
Stalji
Kršća
Civi
mnogobrojnih
pohranjuje
konkretnim
geopoliti
ažuriranje
HZZO
pristao
zalihe
gosta
predstavljao
kontinuitet
optužio
Poe
pričali
ekspert
stavljanje
##deti
Show
povraća
##OVIJE
molio
Čit
američku
spram
##VS
prostire
би
##bati
Mün
Uspe
postupkom
Otvoreno
akumu
ori
Oska
kockice
##stor
teškoće
suigra
STI
pohvalio
##mel
udvo
vladara
KRE
otpje
pružanju
neočekivano
čina
dioksi
zacrta
##gie
Vijeću
Čačić
RP
postove
iznenadio
##nomiju
glazbenu
##vići
standardne
memori
Catherine
proku
prozra
svećenici
pojedince
##ndom
Ljiljana
##89
poštovanjem
kut
humo
gostovanje
pjevača
ре
lji
djelotvo
opravdanje
moslava
Albanaca
podsjećaju
okrenuo
Okvi
dospje
gostuju
##kalip
##IN
##cionalne
##laženju
iskorak
birali
sekcija
Federe
petom
Rose
legalno
Pobo
igračka
područne
Mrko
izboriti
zaloga
skole
##far
većom
noćni
1959
##kule
utvrđen
##cice
najjefti
najbrže
##njskim
svjeti
minut
zapadnih
kopri
##čisto
Dozvo
prah
Izraelu
filozofiju
##EL
autom
izdala
Pusić
bijelih
mladež
Leonar
čistu
sindikati
tipku
komunikacijskih
ulažu
nastati
otpornost
##šnjaka
faktori
##tkovića
lici
##rnija
BAN
Grba
##anta
brzim
##ntić
ispunjeni
zanemari
prozore
pisane
##lk
##HR
čudovi
Krije
zabavi
nesumnjivo
cim
hlače
Tvoje
mob
stoma
1954
paz
srčanog
Dakako
##TC
cjeloživo
pavi
##gradnji
Karl
Tehnologija
trgovačkog
##svi
Prakti
Wee
##vaniji
predvidjeti
identitetom
Saint
privremeni
netak
Kinu
Komenti
ugroziti
uvođenju
prosjeka
povoljno
preostaje
des
kosta
Origins
raspoloženja
popa
##lagao
Duša
##šćuje
USKO
štu
##cast
pridonosi
ulicom
MR
šetnja
reć
Opća
ishrani
papire
čitatelji
prega
internetskoj
princ
pokriti
Pozdra
jednaki
stvoren
reba
kupoproda
pobjednici
Mandić
uspon
reagirao
racuna
not
Dodatne
Stare
Brijegu
Renault
interesantno
##stojanje
Obrazovanje
netu
sufinancira
ocjenji
nanese
vječni
cipela
tabeli
uobičajene
komunalnih
kancelarije
sistemima
Ljeto
reklo
investitor
krasi
proizvoditi
oru
pravovremeno
Vjerujemo
specijalni
PVC
GR
zamislite
privolu
istoga
Bugarskoj
##cing
pilu
obim
ismija
redoslije
incidenta
puk
klauzu
iskr
vrtogla
esencija
Zajednica
##javite
Regional
Jam
##че
pobijedi
aktualni
predizbor
najpoznatije
opisuju
##lot
Repre
Standard
materijalnih
Neve
imperija
##42
paše
Teksa
razlogom
bicikla
Sretno
navođenje
nadima
koo
Alija
pustite
Williams
budale
stalne
##grama
stereoti
karakteristikama
biblioteci
promenu
Poklo
##bović
teatra
tvojih
Aga
sjećanju
rupu
okupacije
was
Proces
žestoko
druže
##liraju
kontakata
kvalitetnim
ministarstava
straža
delatnost
Zadovolj
usagla
GU
primijetiti
kemika
##KRI
ispunili
A1
##cene
registrirati
Antonija
prihvaćanje
podigli
kardiovaskula
pozvan
investitori
Nasi
lampi
##hijere
##zano
najviša
izvedbu
Tvo
ubijenih
poduzetnici
uzroko
Bile
reši
##ženije
Alfa
Vrsta
susjedi
vizije
stoljećima
vanjsku
legendarni
AUTO
sobama
popularno
pok
nestane
doča
не
lepa
porukama
najljepši
susjedne
##manović
prijevodu
Minima
##kcijom
procenat
##dla
Grafi
vodovod
temperaturama
snažnu
Daru
Glasno
žale
pušenje
dijalek
zaslon
monstru
pozicionira
Vido
Soli
##zanu
Sije
susjednih
odvjetništvo
potpunog
Pobjedni
watch
jeftino
##terapije
peta
##ći
High
Aktu
Kni
JOŠ
dodatnog
laptop
Karlovca
omiljena
Podijelite
##zujemo
ofan
##čnite
##GOVO
pročitala
Vila
##govornici
##gića
šaho
vakcina
januaru
zamolio
mrze
24sata
Olimpija
Đor
liku
KZ
dosao
Sabo
košaricu
muže
KNJI
Čisto
njezinog
darova
optužbi
financiranju
Nisi
es
postavki
##tniku
propustili
formiranju
Verovatno
reporta
smeštaj
pacijente
transfera
Pravne
demokratska
OBJA
##brija
bolj
Sola
susrete
##lizirani
aspektima
populacija
vulgarnog
recite
noćenje
##ficirani
Tony
cjeline
udvostru
Magda
Bojana
planiranih
poso
osobnosti
##toria
Ohio
Pitanja
##vož
revita
decembru
dođem
plasira
odabrani
genetski
ema
Tagovi
##ljop
tajno
akademik
rejting
predseda
poginula
davali
Francesco
Članci
Brodsko
Tebi
pregledavanja
glazbom
Enter
ekspedi
samopouzdanja
tužilaštva
surađivati
Jedva
##ини
##tjeli
će
stvarnim
Donja
dobojskog
težini
dijaspore
zadatka
ostvarenju
Daily
prizor
uje
zive
nauče
trupa
vojnom
Kazne
svetskih
zauzeti
##žnika
##čega
stanovnike
Alo
mučni
Set
žice
potpredsjednika
rezultira
Jurić
##zimati
svetlosti
Neda
Klima
Turni
##cnog
ovamo
pustio
neispra
inspiraciju
pahu
počiva
##dakti
događanjima
lutka
1917
##foru
Pariza
teritorij
prešli
tehnoloških
nastupom
prepoznao
prerano
Dopu
ostatke
Meri
##pska
##tnjom
informisanja
običnog
##jaliti
muzičke
frak
Srednjo
osmog
Trumpa
najstarije
učinite
##vlačenje
vjernike
svakodnevnim
nee
tuga
Proizvođa
kontracep
##venti
pozitivnu
napustila
brojka
osnovnoško
poduzetnicima
back
efekti
ena
##urs
dokumentacijom
novinarstvo
Rome
sastavljen
Nagradu
sličnosti
kriju
Timo
Sindikat
Proizvodnja
fasa
komandant
Troško
sporazumu
prljav
svježeg
Mag
piro
pojašnjava
komemora
##jstva
obišli
organizirani
zloupotrebe
primijetio
##kira
vratar
ugledni
sukla
rama
##pea
pojede
prikazu
odvojiti
opću
suro
##kovica
Mami
spoznaja
Bon
distribui
ubijeni
Srpskog
zagone
pouzdano
bendova
zadnju
saborski
##vri
##njače
najbrži
##cover
nekretninama
čitavo
##sac
nedopusti
štedi
klimu
nastavnih
oznakom
digne
činimo
naranča
dinamo
gospodarskom
zadnjoj
trgovačkih
spremaju
kinemato
prekrasna
polovina
fos
Institutu
organizovan
1958
##dnicama
zatraži
Detalji
tuge
tisak
pregledati
Milanovića
PG
Kvar
dodavanje
fakat
čujemo
Lazar
Zapadnog
Zeleni
obavio
##zlo
##bone
##dovanju
lisi
razmislite
ZG
FINA
##binom
peva
Promjena
sveop
paramet
Stvar
sprječava
slanjem
##jla
desk
sjajnu
direktan
legitimi
crvenim
najsi
Uredbom
Nemci
sjedištu
konkretnih
postignuti
prstom
##pke
iliti
suveni
uvred
suhe
petog
izvoditi
Lukić
trošiti
ohrabri
fondove
arte
točne
un
nadomje
##ziste
ice
istražiti
Barse
rublje
neovisnosti
##rete
polovica
Muham
Imajući
izazovi
Ol
##rity
čarob
ispalo
temeljna
##lnike
materijalna
suosjeća
Trebinje
vatrogasne
planetu
##naesto
sine
odlučivati
potvrđena
postavljati
tužilaštvo
Princi
salata
stradao
nužna
##wee
nevjerova
##tava
trai
##dicama
##liše
hlađenje
otklju
širiti
##dnevne
ABA
svadbe
deveto
##ČIĆ
pratim
Jednako
poteze
vegetarija
razumijemo
najnovijih
Kos
grup
Kala
##ars
bombardi
##tivaca
Sebasti
Mladena
Bošnjak
obljetnica
baština
Kin
Savet
##stavljeni
pojavile
##reš
Cra
tjelo
borci
Run
nemože
admin
Nekretni
alo
##gia
predgra
smanjili
šlju
toplinu
Igora
stupnju
##hl
Rusa
uputstva
tjednik
0CC
zabranjen
oja
Trogi
##pet
popusti
dizel
Njena
sportsku
šarma
##parol
##tani
Manifesta
strelja
pio
ničega
##tovana
izleti
gura
prvobitno
Stalno
ponosi
Predlo
krive
ključno
džep
Kulturno
beskuć
treneri
krađa
ostanak
Zahvaljujemo
bijelu
##lemu
kamenja
prihvate
oduševio
isce
##privrede
Veleučili
podri
Konkretno
Prvenstvo
zgu
Joe
0CCs
predzna
vera
##ŠKA
tipova
glasanja
0CCsQ6AEwAA
krade
bubnja
hip
Design
Navija
kvanti
ubraja
podsjetiti
##76
ambasadora
generalnog
subjektima
poveznicu
##djeni
uporabi
Jednostav
##tiranja
strateškog
islamske
aerodromu
HGK
Pomoću
deficit
ojačati
kaci
anksio
SH
Alexan
Napisao
Spolja
AAI
Sastoji
minija
koaliciju
pokloni
##uli
koaliciji
dostupnih
specifičnosti
##tarski
osećanja
hoteli
Germany
Vega
provjeri
##pisati
Općinsko
spontano
toplu
##kosti
Ivano
hodati
Brati
##ljivijih
obrtni
##ženijih
##sted
Bogdan
večere
bezbjednosti
svrati
Tanjug
Večeras
Mišljenja
poginule
promjera
gledišta
Plit
grafički
uzgoja
##ljenika
dema
prigodu
urade
Sasvim
filmska
školskim
##zovite
besplatnih
objavljivati
poretku
pravilnika
nagrađen
jedinog
##mete
Цр
##chy
prodali
nespre
stolica
##ama
popularnosti
sedamdesetih
uračuna
Knin
spambota
odlikuje
Razma
Promjene
Koali
OBI
impo
##znici
##rišta
##čicom
gricka
Požare
##dian
doline
puša
baštinu
diskusije
##hinja
mještana
081
##zivu
pomje
predstavljamo
dugovanja
afera
XIX
##fenzi
##elektrane
Plaćanje
proširi
petnaestak
Rosa
Rob
Samobor
vrijednih
otkazi
filter
gornje
unatrag
Izvršnog
Muškarci
italijanski
vanjska
klin
Amerikanaca
protein
protokola
zasa
poglavar
Continue
##cenja
potrošači
HRVATSKE
skladištenje
Biljana
pikse
pohranjuju
##čarske
kupnji
redakcija
ranih
Sar
školskom
Krku
##renosti
sorte
obrazloženje
##štani
##tičke
čokoladu
glasaju
USD
smjeli
Jednog
uzmi
Šibensko
naučnih
uređuju
FU
uključivanja
1957
##NER
originalne
##kovog
tegobe
nastavnog
ugrožena
najutjecaj
plakati
USK
osnutka
standardni
terasu
opsje
Prime
Bula
Album
neuobičaje
viših
opasni
##zavanje
Sreć
Publika
kršćanske
katastrofe
zidovima
zahteve
Sloveniju
pojavom
Iskoristite
meti
##hahaha
Agrokora
##minka
razgra
oglaši
uporabom
tumačenja
komfor
Razlika
plastične
stala
1949
ohrabru
opseg
bitnih
novinarstva
nabra
##šćih
vrijeđanje
##keri
četvornih
porno
ljetnim
##tto
slasti
podsetio
Petković
dogovore
likovima
indirektno
mikse
fundamenta
pamtiti
Ceti
preddiplom
Prošlo
Libera
razvijen
Branislav
restri
kompliko
savezu
##жа
planinama
Iraka
##snuo
reno
plovidbe
Radna
sluge
pisani
##mosta
##sezo
četni
pozivi
navodima
Kanade
građanski
Apa
razmotriti
tečaje
##loze
##govac
inča
nositelja
likom
avanturu
borbama
domene
finansiranja
proširio
pojedinosti
masnih
mučeni
servera
##goro
stali
Pripadnici
Sastav
Zadnja
Names
predstavljanju
Vodič
vala
ograničena
doznaje
##dskih
godišnjaka
centrom
saopćeno
putevi
Hoću
zločini
stavim
##žani
RL
Priroda
izbacio
koncesije
odlučivanja
##kise
##čete
lopti
podle
izmjenu
bolestan
Vidje
otkrivena
Češka
##zdi
podloge
Uoči
Tamara
prednje
turistima
oslobođen
##jio
odobrava
BITI
lekti
Nećemo
predsjednici
Seminar
koz
trendovi
široku
Old
Spu
Volo
kurse
sednice
distribuciju
POV
usana
citira
##rmarke
tajnosti
Peti
suđenju
##ličiti
zatvorene
udari
##ndy
zatražili
Korištenje
Crikve
##æi
mature
Koreji
primera
kunu
demokracija
provincije
##ćevo
klinci
povećanjem
Oku
intervenciju
davala
##Pa
original
njege
cjelinu
profesionalnu
poveznici
poduzetnike
riješio
nezaposlenost
stanovnicima
zimski
umjetnička
civilizacija
stalna
prebaciti
luta
prepoznatljiv
clan
čišće
prebivalište
svečanoj
Eva
drveća
Slede
Miloša
NL
napamet
##ljopis
promatrati
krajeve
zaprim
vlasi
##hibi
##vange
##MB
brodovi
Janu
meksi
Osam
crnogorski
##dus
Vaših
Tin
predaka
##vakida
budućem
dobavljače
odgovarajućih
odigrala
Uredu
veselje
##ppy
##fit
Registar
ishranu
najavi
Žarko
hranje
anketu
Haagu
Grci
traženja
završavaju
OVA
Dob
ljevi
Siguran
ravnomje
instalaciju
Osnove
novosad
bogatih
agenciju
učesnicima
dvoboj
Zahte
mape
bilan
masovne
duhovnom
saradnicima
##nkama
Perković
##ŠTO
četvrte
građanske
kasne
Paris
mladom
##nirao
##lovo
Radnici
prenosimo
financirati
prepustiti
izvukao
kritički
Izveštaj
##polje
dnevnika
uvrede
Airline
Francusku
sadašnjosti
šk
Izvršni
licem
elektronski
linijama
PREDS
Čaplji
najjednostav
modernom
over
Nige
kongres
sindikat
boravku
tradicionalnim
protivnici
slaviti
odreći
zavisno
snimci
##prijeti
njezinoj
predškolske
radnoj
zava
Pomi
nazove
Subotici
sulta
svojstava
sklapanje
prisutnima
118
obradom
pravoslavni
HS
marketinške
drvene
moci
Samu
Ugovo
efikasnije
Evropski
Jero
##hard
GMO
Odsjek
originala
skupovima
konačnu
prešla
zidovi
##pular
odredište
##ders
moralne
rezultiralo
##lističko
bijeg
debelo
pogodila
Beče
pretraživanje
pris
VRIJE
podijelio
##nity
opredije
zvala
utočište
inspektor
oblaka
##kovaca
##ence
##zel
prisutno
srijemske
vagina
pobedio
odri
##redna
pripala
Reala
sanacije
00h
Metohija
##tooth
sluha
surfa
MLADI
izmena
najverovatnije
koordinaciju
Vlasti
prebivališta
jedinstvenom
znakom
nervo
madra
Katalo
trgovački
Div
pisci
najavu
rezultirati
izvršenju
prijavila
višu
Elektri
izbio
obavješta
Slijedi
##lijom
Hong
stajalište
mae
sladoled
Riječi
ucje
##dvos
Anke
pronađite
fitness
upli
djelova
##ary
evropskog
##ševo
mogućeg
##godišnjim
download
sakriti
##fur
jezgre
Švicarskoj
Vrhovni
stazama
prekrasne
razvitka
poticati
napitak
općinama
##sey
populaciji
1912
Učita
##štenu
ispunjenje
prisustvovati
dugih
sudbini
konačnog
SIM
okolišu
hipe
##ricanja
specijalite
nastalih
114
kratku
pratila
Djevice
obilježiti
preure
Vero
##cinu
Eli
vanjskog
misiona
planet
##ном
integrisa
organizovao
okuć
vjernik
##rl
##ssia
ye
kreirati
asortiman
prilagođen
##LjE
Površina
damo
potražnja
izmišlja
županiju
Izvan
##lican
pilota
bavili
kontrolira
kio
Rela
##iza
Vaku
Ape
dopred
##zeri
Vrhovnog
zaposlenima
otkriven
očituje
prvima
horor
snimili
najvišim
užasno
tragovi
##jeni
pokušavao
Predsjednika
zauzela
##jicom
silo
asistencija
##mark
grba
pouzdan
Posjeti
Katedra
Mladosti
doslo
zamjene
alar
namjenu
nogometaši
Ray
probao
sahranje
komunističke
siječanj
temeljne
vs
izjašnja
##ject
odličnom
Brazila
ubrzati
Akademiji
Poseban
##tacijom
parovi
dođete
internetskom
1955
prijetnju
artriti
mostu
Indone
olimpija
dotada
##mala
Dimenzije
korpusa
limiti
dostavljaju
tablet
digitalnom
operatera
zadužena
cijenom
zaže
##kine
pornog
krajnjem
proleće
centralno
treninge
zadruge
Let
zauzimaju
regionalnu
kursa
Tomi
Lei
##šnije
zavlada
nadahnu
##steri
aspekte
Dječjeg
Anta
Egipat
sveučilištu
kinu
##sanju
imenovanja
mentora
glasovima
znatiže
Epar
Safe
akademskoj
efekata
Premier
##libera
Tata
zabija
implementaciju
opremi
razmišljao
partiju
ukupnih
Iranu
pero
Učenik
##ndžić
##veznica
oprati
popi
uništavanje
Kancelarije
Brnabić
lekovi
pojačanje
orijentacije
Management
trgovci
kvazi
stalnim
##sih
dopuni
krivičnih
susreo
predsjedavaju
##lističkim
viza
OPG
##ĐEN
naoružanja
specifičan
trajne
sadr
supar
običnih
Ustanova
##ред
Poziva
otkriveno
God
Strategija
reditelj
apostola
Hun
žuta
Osvr
Državna
dade
barije
domenu
##RATI
nalazili
##psa
##rm
kvartalu
##slovce
Best
Virovitica
##tiš
putnik
kutiji
kopirati
geneti
hteli
snalazi
Line
false
provedene
odnositi
nepredvi
F1
zapaža
Mujo
korišteni
specijalizo
##zita
##aaa
Pravilima
iskoristite
Vojska
prehrambenih
##cari
kompli
vali
nogometna
Reuters
ozbiljnu
brati
Golf
##čenost
BIO
prilagođena
Metodika
126
zmija
civilnih
istraživačkog
##nas
##cava
gospodarska
Evropskom
Policijski
skepti
##rence
Glavne
Virovitičko
##wan
Barbara
Vre
covjeka
##beni
ispunio
glazbena
##gl
zaposlena
skidanje
bavim
učinke
cjepiva
rasvjeta
##lte
Kolin
Pravoslavne
zabu
prise
kreiranju
složili
##ŠK
okupila
predavača
projekcija
tan
samostalni
nalaza
Traži
##ско
urađeno
zaposlen
1952
Bosanski
Uru
Fis
oslobođenje
fotke
##znuti
ribi
duhom
nalaže
Lazare
oštećenje
odobriti
nasje
socijalnoj
lijevoj
Petru
kućnih
127
poslednjeg
Pop
Marcus
bogatom
Vojislav
selektor
##cks
Sinoć
transakcija
točko
primjerima
##tivci
podrži
OSO
seljaka
veleproda
doktri
UO
konfe
tjesko
adrena
##rebre
blokade
nedvos
##skome
##rnici
isključuje
ožujak
uhvatio
vrući
kreativno
čuveni
##rtvo
##pustio
histe
Analiti
piramida
informacijske
završeno
##well
trendova
Najmanje
asp
##čino
bogoslo
obratili
Hm
##kC
##verzi
praznike
fazama
##LIN
Maje
##porter
Redak
socijaldemokra
izložen
provjerava
smještene
metodu
dobijanje
prepriča
koraci
Cle
Slavica
funkcionirati
psu
prska
##skur
dezinfe
redovnog
fondovima
Sali
preglede
pružila
Ukupan
glavama
opasnih
džamija
Skri
prometnoj
Gimnazije
potencijale
Pančevo
Vozač
izabere
Sie
##izam
komiteta
socijalnom
Ponovo
nestaju
##Net
##fikaciji
uputa
##zvrat
indeksa
Ovoga
garanciju
saopći
Cvje
lijevom
kugli
poezija
SUV
Ekonomski
Henry
Aqua
hotelima
obma
poruci
Ovisno
vjerom
dijama
spisku
vodeća
##ón
zabrinjavaju
hladni
milijune
##BR
Stevan
pozitivnom
dikti
Župan
preživje
spremiti
VW
laser
Vera
napravim
lošem
Pas
sjediti
katolika
nezavisno
artikala
privlače
Bank
penzija
ključnu
zaključaka
testu
SIPA
edukaciji
##NjE
uslijedio
premijerka
optimizam
riječju
masaža
kompre
Jug
poreze
prođu
prekrasno
ekvivale
sjajni
radozna
teoreti
svečanom
zbrinjavanje
podro
trudnica
fakultetima
pijem
konačan
Nastavi
britanska
slazem
Miss
##120
##mont
ishoda
uočiti
kompletna
licemje
nedostatku
lan
uzalu
neodgovor
brendova
platnu
napravljeno
primenjuje
profitabi
PROTIV
strpljenja
met
nagrađeni
poslovnoj
##snijih
pametna
Usluge
ovlašteni
oružanih
Šve
##bosan
isporuku
zavičaj
banjalu
aktua
Steve
prikazali
nezavisne
branili
Report
##inst
Alterna
pročitate
whi
Jupi
umjetničko
##zdo
tipu
##cat
##stimo
preminula
strogi
##fin
NATJE
krivac
optužnicu
instala
koracima
Ash
antioksidan
nestali
narednu
planiran
280
service
Krem
##rcima
pokretanju
porek
##jat
Biblija
Cru
Liko
superior
Želiš
položio
obavljao
poglavito
libi
izvedba
##ор
završnog
kaos
Matica
intenzivi
ognji
HNB
uslijedila
POLITI
##metaši
##opskr
Slovenci
ideš
arhitekata
Abu
Cre
Takmi
plodovi
prijepodne
rijaliti
##dijske
stavljati
obavili
dvorac
Recen
mjuzi
doživljaja
##leni
pomoćni
pristaje
pohrani
studentskih
ин
očevi
pozorištu
##rel
preporukama
vazduhoplo
##mmy
0415
nezavisnih
##ће
meha
##teći
žensku
folklora
stvarao
lečenja
##struko
smer
neči
Labora
trendovima
Perić
praktična
##zdra
oprez
profesionalnim
bunde
##lopment
PT
sklapanja
Oscara
lom
stihove
Filipa
Kampa
Belgija
fiziku
oživlja
svađe
polugodi
akci
2500
impera
izmenama
tanji
ironi
koru
uzet
bogatim
istrazi
zvanični
##ljaju
##plata
Mes
kanalima
hepatiti
savršeni
Promeni
bosni
usmjerene
nastojanja
priznat
osteo
predložila
##cnim
frustri
Jona
otvorite
divna
povijesnog
##dnevna
kukuruza
WE
turističkom
nadležna
govorite
##pediji
kritičari
tumor
##mia
formirana
zakonodavstva
donesu
prenošenje
sadašnjost
novembru
Associa
potpomo
Strateške
Mislite
svetko
izgradnjom
ule
negativni
pjevati
osnovali
diska
učinilo
uništio
sferi
Jugoisto
robota
dostojanstva
pšenice
##čnja
[...]
